#include "model_data.h"

const unsigned char model_data[] = {28,0,0,0,84,70,76,51,20,0,32,0,28,0,24,0,20,0,16,0,12,0,0,0,8,0,4,0,20,0,0,0,28,0,0,0,136,0,0,0,224,0,0,0,164,251,0,0,180,251,0,0,248,29,1,0,3,0,0,0,1,0,0,0,4,0,0,0,94,0,255,255,12,0,0,0,28,0,0,0,60,0,0,0,15,0,0,0,115,101,114,118,105,110,103,95,100,101,102,97,117,108,116,0,1,0,0,0,4,0,0,0,148,255,255,255,38,0,0,0,4,0,0,0,8,0,0,0,111,117,116,112,117,116,95,48,0,0,0,0,1,0,0,0,4,0,0,0,54,3,255,255,4,0,0,0,11,0,0,0,105,110,112,117,116,95,108,97,121,101,114,0,2,0,0,0,52,0,0,0,4,0,0,0,220,255,255,255,41,0,0,0,4,0,0,0,19,0,0,0,67,79,78,86,69,82,83,73,79,78,95,77,69,84,65,68,65,84,65,0,8,0,12,0,8,0,4,0,8,0,0,0,40,0,0,0,4,0,0,0,19,0,0,0,109,105,110,95,114,117,110,116,105,109,101,95,118,101,114,115,105,111,110,0,42,0,0,0,192,250,0,0,184,250,0,0,164,250,0,0,136,250,0,0,116,250,0,0,88,250,0,0,60,250,0,0,32,250,0,0,12,250,0,0,4,250,0,0,240,249,0,0,220,249,0,0,140,249,0,0,124,248,0,0,108,8,0,0,220,7,0,0,204,1,0,0,124,1,0,0,60,1,0,0,52,1,0,0,44,1,0,0,36,1,0,0,28,1,0,0,20,1,0,0,12,1,0,0,4,1,0,0,252,0,0,0,244,0,0,0,236,0,0,0,228,0,0,0,220,0,0,0,212,0,0,0,204,0,0,0,196,0,0,0,188,0,0,0,180,0,0,0,172,0,0,0,164,0,0,0,156,0,0,0,148,0,0,0,116,0,0,0,4,0,0,0,86,4,255,255,4,0,0,0,96,0,0,0,12,0,0,0,8,0,14,0,8,0,4,0,8,0,0,0,16,0,0,0,40,0,0,0,0,0,6,0,8,0,4,0,6,0,0,0,4,0,0,0,1,0,0,0,235,3,0,0,12,0,24,0,20,0,16,0,12,0,4,0,12,0,0,0,110,77,144,118,175,242,222,191,2,0,0,0,2,0,0,0,4,0,0,0,6,0,0,0,50,46,50,48,46,48,0,0,194,4,255,255,4,0,0,0,16,0,0,0,49,46,49,52,46,48,0,0,0,0,0,0,0,0,0,0,216,228,254,255,220,228,254,255,224,228,254,255,228,228,254,255,232,228,254,255,236,228,254,255,240,228,254,255,244,228,254,255,248,228,254,255,252,228,254,255,0,229,254,255,4,229,254,255,8,229,254,255,12,229,254,255,16,229,254,255,20,229,254,255,24,229,254,255,28,229,254,255,32,229,254,255,36,229,254,255,40,229,254,255,50,5,255,255,4,0,0,0,48,0,0,0,1,38,127,129,163,134,234,13,129,129,121,23,112,11,127,105,235,129,127,172,158,87,66,129,127,16,115,67,129,80,43,82,129,129,101,241,127,143,180,55,129,110,75,129,78,196,129,240,110,5,255,255,4,0,0,0,64,0,0,0,237,238,255,255,146,244,255,255,148,250,255,255,252,5,0,0,243,123,0,0,176,251,255,255,89,1,0,0,15,248,255,255,31,247,255,255,229,253,255,255,236,1,0,0,230,1,0,0,122,1,0,0,122,0,0,0,134,253,255,255,229,30,0,0,186,5,255,255,4,0,0,0,0,6,0,0,30,187,76,109,13,36,220,13,38,76,30,127,12,232,60,72,230,67,249,247,194,235,83,29,251,58,11,38,85,88,28,239,28,234,247,111,26,93,104,65,2,78,226,94,16,238,228,172,184,205,107,78,14,6,27,14,71,247,207,121,2,39,36,208,39,4,231,92,201,59,127,113,244,86,9,255,104,78,115,10,244,1,234,51,5,235,86,78,16,92,20,254,50,62,105,210,85,191,236,46,201,103,244,103,40,27,11,3,17,82,99,37,69,23,19,58,220,63,84,8,5,50,214,58,75,90,126,10,64,226,7,12,61,127,22,214,253,247,85,6,237,233,42,230,170,217,57,32,241,46,23,18,191,56,127,42,98,100,122,215,52,44,27,51,73,58,241,48,224,94,24,252,46,107,246,27,198,13,230,202,217,26,67,88,205,63,73,0,0,64,43,189,217,77,177,71,16,154,28,206,21,71,123,248,42,84,170,230,181,42,90,6,199,222,171,230,108,214,98,11,176,150,212,52,4,72,179,83,250,145,192,234,62,195,65,250,127,210,105,99,78,58,233,59,252,127,238,22,202,14,226,217,237,46,162,220,248,186,140,192,133,40,6,58,13,52,36,226,200,184,171,252,214,201,148,217,202,40,64,147,194,59,133,235,8,35,243,75,94,39,45,58,242,1,32,87,216,221,224,61,23,101,121,241,177,173,92,127,180,100,250,40,243,216,58,127,110,234,248,12,19,20,225,107,80,104,47,224,12,22,52,239,12,85,235,8,58,5,0,185,51,87,245,228,45,1,88,1,127,11,110,219,19,209,42,99,228,96,29,81,167,244,66,90,71,183,16,173,204,184,20,197,88,69,41,11,37,101,16,233,40,80,100,252,211,239,22,39,73,223,201,199,225,176,246,30,199,223,226,20,247,90,218,47,58,134,129,196,96,132,177,227,210,50,165,56,249,67,19,254,32,158,175,186,78,201,39,193,176,57,172,16,52,81,9,78,53,97,53,82,15,93,22,25,119,119,91,63,1,51,213,29,181,27,54,48,40,225,49,24,48,61,253,222,84,16,195,202,235,43,88,53,252,61,247,225,226,127,28,56,239,245,199,215,118,210,241,15,207,51,106,69,255,118,27,241,219,38,80,127,72,24,29,242,210,15,21,119,108,118,52,23,12,234,7,60,248,25,252,232,242,114,222,208,31,84,89,51,234,242,40,242,19,254,22,232,209,233,196,232,194,216,225,37,19,19,220,1,93,155,233,185,0,203,181,31,141,231,190,73,69,53,13,2,95,216,174,182,78,216,216,56,164,218,129,48,45,76,240,245,34,24,17,199,225,240,52,41,158,28,244,36,202,238,190,225,127,52,9,214,217,89,245,233,113,233,7,96,50,65,21,114,65,58,218,217,239,179,122,25,233,200,229,198,202,36,38,83,48,228,78,37,207,34,66,99,17,48,27,30,26,21,234,236,253,213,253,219,55,42,35,215,232,36,127,89,58,193,56,63,197,29,110,232,65,40,93,241,0,75,73,48,72,8,73,101,202,32,254,74,164,91,78,68,51,229,127,187,7,97,76,8,71,104,221,1,58,4,210,243,18,104,52,223,56,35,84,92,225,253,86,228,154,227,110,236,75,87,19,188,222,4,192,32,249,106,88,66,14,248,76,255,95,108,123,77,244,202,226,91,210,211,75,41,236,51,32,35,30,252,127,29,40,247,9,53,222,15,105,109,72,18,51,55,249,233,66,8,30,240,254,22,252,217,244,51,201,88,202,26,245,48,127,22,7,8,50,7,19,4,83,7,37,77,70,69,45,53,60,58,62,49,199,92,226,6,230,17,13,97,24,50,59,37,76,254,47,2,54,48,198,13,55,120,68,27,87,116,13,10,31,31,37,255,254,89,237,240,240,216,1,49,20,88,22,2,112,60,168,6,13,250,245,32,107,28,24,230,51,40,98,127,6,55,8,224,254,231,244,53,2,19,60,119,5,244,18,115,127,59,0,182,81,51,198,116,54,26,231,248,255,96,247,228,49,233,87,192,197,119,6,91,102,98,199,86,0,91,44,86,124,0,227,37,214,244,74,126,100,218,238,109,77,247,4,112,50,31,93,149,16,69,2,224,45,37,164,211,102,3,104,235,252,228,74,212,226,93,62,58,73,114,205,37,212,64,56,9,127,28,170,20,236,28,239,229,123,39,210,72,17,24,112,4,127,205,229,60,170,112,254,45,236,44,43,17,7,34,85,101,119,212,47,71,215,249,32,70,52,101,179,66,36,31,68,8,117,236,177,69,22,163,48,249,17,192,27,13,176,221,181,149,170,237,44,54,228,224,104,240,135,142,10,37,201,191,178,21,8,246,50,229,201,57,92,139,213,143,93,231,215,249,12,212,129,54,212,6,243,69,113,237,228,3,63,10,44,248,241,101,38,37,207,255,71,127,10,86,246,46,54,218,218,46,245,0,228,221,250,238,30,12,117,243,6,221,2,50,205,21,86,61,229,88,214,240,199,92,20,106,77,231,206,248,203,117,7,94,103,217,166,226,238,67,20,251,63,95,15,12,253,97,111,255,95,26,89,186,223,43,31,252,24,16,243,37,2,127,30,236,108,41,230,250,218,236,95,208,211,2,212,238,167,4,159,252,199,11,220,251,175,33,232,2,175,146,19,129,149,174,168,185,253,22,249,11,219,215,89,212,189,183,21,203,7,34,40,156,238,218,165,206,207,42,8,59,101,225,54,25,22,216,108,104,4,24,196,24,203,34,225,76,240,227,37,33,64,98,4,4,113,218,225,7,202,16,60,233,50,82,254,127,55,60,70,10,82,40,41,207,67,25,55,206,253,198,15,246,172,5,31,52,127,88,180,208,209,81,212,62,80,222,168,119,95,117,117,112,230,14,195,60,74,118,239,247,234,124,207,96,21,64,16,111,198,244,205,6,218,48,104,157,243,211,46,172,199,8,206,76,152,106,5,3,30,245,66,212,151,178,224,142,159,81,244,14,138,51,50,27,204,181,69,210,53,211,6,215,27,26,190,183,129,255,23,71,228,196,42,12,163,162,12,252,230,67,188,214,194,5,90,221,209,25,65,184,8,178,11,183,240,16,160,12,242,202,22,38,249,241,103,195,14,175,239,129,15,225,4,205,213,39,93,33,71,105,168,233,105,16,27,61,244,94,8,202,120,229,201,2,43,71,46,252,32,13,216,80,14,87,101,1,19,243,78,59,44,84,25,102,111,114,35,251,105,127,16,28,18,240,76,224,20,229,238,77,63,19,211,247,23,231,93,111,26,254,56,193,219,10,9,67,77,101,36,87,207,33,15,234,127,51,40,210,34,220,227,10,247,53,59,73,247,242,119,104,26,53,55,96,23,119,38,123,211,115,3,37,246,226,1,213,243,108,242,45,172,91,44,113,125,12,202,71,4,25,93,127,70,250,231,197,58,46,46,208,49,219,47,226,50,38,104,239,226,18,198,11,255,255,4,0,0,0,128,0,0,0,232,208,255,255,210,218,255,255,159,218,255,255,6,209,255,255,113,240,255,255,96,4,0,0,82,194,255,255,251,190,255,255,191,154,0,0,56,212,255,255,234,25,0,0,167,94,0,0,192,40,0,0,180,213,255,255,209,223,255,255,200,223,255,255,236,214,255,255,181,218,255,255,196,233,255,255,190,224,255,255,171,202,255,255,196,58,0,0,83,74,0,0,172,234,255,255,223,105,0,0,138,190,255,255,150,253,255,255,221,116,0,0,119,151,0,0,6,191,255,255,243,226,255,255,198,185,255,255,82,12,255,255,4,0,0,0,0,240,0,0,234,82,50,25,32,37,246,19,158,78,250,255,80,36,27,65,32,64,10,84,49,26,67,47,153,1,59,6,214,231,1,79,36,9,249,9,33,206,233,73,142,57,52,241,250,13,79,251,254,26,93,71,46,237,241,127,18,18,62,250,215,65,77,52,40,50,239,41,253,208,232,46,212,219,64,207,235,53,234,233,46,40,106,2,82,221,242,93,207,48,40,26,212,40,8,31,236,31,73,40,36,230,43,225,241,48,224,179,21,220,224,31,73,36,54,61,250,184,231,43,202,14,24,28,166,230,220,238,42,20,64,84,236,223,52,16,147,238,83,6,32,3,239,57,14,9,34,249,228,3,61,120,173,23,237,186,213,33,74,27,65,65,217,63,236,19,28,26,165,253,34,191,232,60,0,245,49,61,29,54,227,185,214,94,178,32,7,252,170,251,16,46,246,79,238,39,40,226,25,0,223,13,75,153,38,54,17,41,241,222,92,6,19,241,46,18,244,16,37,232,213,231,4,30,217,61,247,31,208,235,7,22,232,40,58,218,15,29,91,233,60,50,13,106,7,238,3,24,183,86,233,254,189,214,16,3,254,221,236,223,69,13,21,78,190,33,9,245,252,68,63,76,9,36,24,27,11,44,243,39,231,37,252,230,157,12,240,33,242,12,70,251,230,211,53,43,153,16,72,222,35,228,36,243,41,52,24,43,26,241,63,22,236,28,231,187,188,229,20,61,249,41,219,84,34,28,10,20,185,26,61,190,224,41,94,252,60,247,41,19,250,193,62,38,159,65,11,24,173,53,12,232,14,230,1,27,6,235,64,221,228,38,6,157,240,223,64,55,48,55,17,72,55,246,30,120,194,4,237,197,233,222,221,5,244,12,1,251,223,209,228,76,245,60,47,184,52,235,76,16,29,228,11,64,243,236,215,92,245,17,10,199,252,66,56,58,253,20,230,29,53,237,72,3,170,13,41,209,68,34,41,33,55,76,250,31,49,217,24,67,182,39,32,204,224,3,62,9,227,17,23,74,26,210,46,47,129,25,74,174,70,240,252,40,34,63,91,70,60,17,241,89,195,54,247,190,180,45,58,39,227,28,71,239,213,222,236,234,143,252,57,175,226,67,78,37,77,48,30,244,72,220,37,9,200,28,242,176,157,4,241,35,41,2,39,1,251,220,70,22,244,41,216,175,25,57,235,54,218,46,110,34,77,37,234,89,223,54,28,35,235,37,214,61,7,239,233,1,209,47,217,68,235,217,2,235,12,39,232,236,25,13,10,98,80,31,66,69,199,238,45,179,219,42,78,25,13,219,6,226,11,220,61,45,144,223,24,189,223,224,15,10,245,81,79,241,34,13,204,86,220,49,41,186,188,24,223,238,45,62,47,234,251,0,252,68,180,27,229,205,71,51,37,38,48,255,41,22,227,13,53,0,247,37,44,0,145,63,0,8,2,49,0,72,234,238,5,6,157,21,44,196,232,222,49,239,86,66,10,51,16,222,49,30,251,6,255,199,161,238,67,216,9,9,217,72,208,62,238,33,143,243,75,211,232,0,72,61,250,27,30,4,237,255,226,62,228,30,225,166,240,248,53,44,79,66,59,48,245,226,27,252,149,29,229,220,14,245,86,32,239,57,242,18,81,209,18,98,214,253,59,17,172,20,253,3,27,6,229,43,206,217,37,74,156,43,37,163,227,8,249,42,88,31,8,60,50,197,20,52,204,75,26,247,210,68,57,10,33,41,64,32,240,52,255,70,219,66,74,194,64,21,225,52,70,31,92,67,75,242,10,46,201,28,248,30,170,225,55,245,27,48,72,78,243,233,249,55,195,58,28,12,1,57,83,230,64,254,57,51,247,224,60,101,218,19,68,224,194,220,240,233,29,42,24,62,50,39,74,67,199,14,34,239,44,16,84,71,68,247,4,40,79,190,25,9,210,39,64,38,199,47,40,46,245,7,66,252,56,65,52,220,186,65,247,197,50,45,49,31,82,11,69,4,60,18,49,45,194,230,237,11,246,46,8,215,28,11,59,32,214,226,234,2,236,69,72,251,40,75,32,41,10,13,16,23,246,255,223,113,205,252,63,8,165,59,254,23,244,69,76,2,252,216,52,236,222,60,29,165,76,36,253,21,22,250,4,3,43,209,61,119,13,75,220,226,154,15,227,63,228,221,181,193,24,3,227,218,46,186,25,48,61,220,236,213,195,194,175,244,179,82,10,3,70,237,248,43,31,238,178,215,203,192,230,229,39,15,245,215,64,182,44,56,8,2,211,232,211,208,164,250,234,70,44,244,88,225,251,64,29,229,181,219,232,246,191,0,251,7,194,217,21,218,35,39,32,221,215,223,171,209,181,34,190,41,13,18,82,235,238,36,29,237,200,2,212,238,205,224,0,231,219,236,50,216,36,49,59,217,248,225,189,225,187,38,210,39,9,0,85,216,240,33,73,211,228,4,208,209,198,254,233,253,249,237,61,203,58,46,35,230,198,239,204,213,188,245,242,30,37,5,87,248,246,73,31,237,184,240,194,239,183,239,232,2,197,225,62,190,18,73,63,10,236,191,201,178,202,249,238,75,63,251,91,250,25,52,75,185,207,236,196,225,203,229,30,15,202,205,59,197,39,31,33,252,219,210,203,183,172,253,200,73,57,11,63,211,7,34,76,192,173,227,204,222,217,197,29,242,199,236,22,211,33,55,55,248,200,178,182,200,184,251,205,78,31,241,101,226,249,35,42,235,178,252,208,234,190,233,224,16,187,4,42,184,48,53,17,6,229,205,187,210,189,17,180,82,13,241,73,201,10,30,63,182,194,230,210,190,234,247,22,25,202,4,20,188,35,41,33,232,222,185,178,201,205,22,195,94,7,17,80,240,5,44,63,184,175,235,220,234,201,197,239,5,230,252,44,224,18,40,34,211,218,190,201,195,199,249,207,93,43,24,72,198,10,55,76,241,190,219,232,194,203,234,33,241,229,203,71,212,36,66,9,3,205,182,204,208,191,15,208,58,51,16,110,219,233,72,72,182,210,235,204,195,219,203,2,252,203,255,63,180,27,93,13,217,235,228,153,221,206,240,197,101,52,19,89,197,13,76,47,187,197,13,210,205,196,243,228,237,229,255,23,210,9,66,3,11,206,181,185,214,203,254,207,69,55,18,84,243,18,55,69,216,179,251,193,201,188,189,12,6,225,221,44,204,54,45,36,255,239,182,155,202,187,3,220,104,30,233,127,205,9,47,60,192,212,225,208,216,212,207,244,247,235,226,56,195,8,49,30,7,214,212,190,184,167,233,215,56,67,20,121,237,0,68,38,236,188,3,217,221,235,204,240,254,208,245,22,193,21,38,32,227,213,229,150,200,205,35,193,44,48,6,78,222,1,78,72,210,230,228,237,236,193,199,2,233,226,218,32,234,46,35,11,243,246,222,169,202,193,247,232,32,62,252,86,227,17,32,76,214,191,18,226,240,236,241,3,20,233,209,73,230,14,45,40,221,197,198,201,250,177,31,202,48,16,250,54,248,5,32,66,238,227,2,201,206,200,247,2,248,252,243,67,244,1,84,37,251,226,233,185,212,187,235,226,48,67,28,98,233,238,55,46,234,243,236,227,249,238,228,247,251,244,232,55,248,43,55,43,250,232,252,206,248,196,35,203,71,40,244,113,219,245,45,57,200,226,14,253,208,239,224,244,3,240,202,72,224,5,58,16,253,223,246,175,199,182,9,250,82,59,27,83,253,222,82,57,237,223,9,213,225,241,232,11,249,243,226,66,236,34,91,54,248,243,201,194,249,190,255,245,72,50,33,91,203,13,83,48,252,219,11,226,207,216,244,25,240,3,16,61,244,45,62,31,227,226,7,230,230,231,15,227,31,38,248,51,239,252,40,74,255,225,13,248,214,222,205,239,3,2,10,59,247,24,93,28,14,236,255,208,1,215,241,213,44,23,1,78,248,15,50,35,207,239,6,209,232,209,250,228,240,227,232,27,217,30,70,65,0,229,241,187,227,190,250,252,28,69,243,38,238,11,71,49,228,227,18,233,211,221,252,253,10,222,1,51,222,8,50,11,239,222,199,223,203,197,20,196,38,37,22,59,214,237,71,37,238,235,238,208,217,244,192,34,247,223,231,29,240,29,85,26,239,222,182,195,202,219,19,234,93,46,250,71,245,1,27,47,200,232,240,223,221,236,226,239,243,242,218,52,236,48,44,41,234,215,184,205,187,191,18,202,41,57,238,102,235,31,32,22,245,200,243,232,197,207,197,2,243,227,222,17,200,60,41,14,233,236,187,164,232,217,33,193,70,13,25,60,216,16,28,47,193,208,214,197,161,181,188,1,23,218,222,44,189,65,68,45,224,211,197,187,197,165,27,209,84,52,243,88,182,31,96,60,219,205,249,218,179,207,194,28,246,205,237,60,176,32,94,64,237,187,192,193,184,159,33,175,71,53,3,61,201,15,90,56,223,195,5,194,224,212,226,230,5,238,220,67,189,25,81,58,237,202,185,183,185,172,55,175,78,38,1,72,210,45,87,45,197,206,9,216,222,219,225,231,242,231,247,75,182,36,71,52,5,215,198,221,192,183,31,197,66,70,44,106,242,54,64,66,206,195,12,231,187,212,244,230,251,219,255,59,193,20,71,27,253,198,218,233,179,165,1,220,88,48,253,81,208,252,92,34,234,191,10,197,220,188,236,250,245,191,242,57,175,55,64,45,15,195,218,203,174,190,44,185,66,69,19,93,201,26,52,57,184,197,17,233,207,224,211,242,9,204,11,74,207,70,80,55,23,215,195,193,181,175,49,187,79,39,4,104,224,10,72,78,231,233,5,190,199,214,225,250,235,215,208,61,215,46,99,67,250,238,212,188,187,170,8,173,87,44,50,81,228,25,75,64,228,193,28,215,184,224,196,247,1,219,247,86,185,72,51,28,243,232,210,209,197,191,15,191,85,62,18,51,201,39,104,61,199,213,238,182,203,211,204,33,229,189,229,68,187,54,84,48,16,200,178,192,214,164,47,168,106,42,25,118,212,23,95,45,221,174,24,192,212,170,225,4,11,222,250,86,196,69,62,55,5,230,176,196,170,195,38,180,69,58,29,84,194,14,72,55,220,197,11,190,201,186,227,18,14,188,222,65,215,69,84,25,231,216,174,189,192,171,39,209,91,48,1,86,203,10,48,88,182,170,12,194,191,186,232,241,25,196,3,56,176,39,96,67,235,211,187,175,195,209,19,184,90,57,41,98,212,246,63,39,183,224,32,204,177,182,203,18,250,203,239,35,184,35,110,66,238,239,216,189,207,203,38,174,127,40,33,91,240,29,106,60,179,174,230,181,226,220,191,237,235,233,235,73,219,65,69,68,3,202,204,173,211,169,255,171,119,24,27,98,231,249,55,38,204,194,230,214,207,186,233,13,21,199,244,91,216,32,89,27,5,232,162,181,190,201,3,192,107,32,6,87,241,255,78,66,207,182,24,190,236,206,193,4,238,238,220,34,182,41,66,24,15,202,176,192,173,162,30,201,114,36,19,87,238,34,58,75,197,203,233,184,232,223,211,34,245,235,251,56,176,69,61,49,231,191,220,191,181,157,8,191,104,64,19,56,195,8,55,48,221,178,248,209,220,205,242,39,234,241,241,57,217,39,91,24,3,229,223,227,198,177,48,179,88,24,26,63,249,28,53,84,186,197,239,178,219,208,235,254,238,214,247,91,202,50,85,34,238,220,195,181,177,177,3,210,102,35,33,83,237,255,99,77,228,182,253,208,203,228,229,24,18,190,248,82,186,21,61,39,14,190,175,198,178,195,31,173,101,69,44,76,218,39,105,82,200,220,225,209,201,224,237,1,8,198,237,63,191,31,90,71,247,237,199,211,166,174,13,199,124,36,250,110,211,20,80,61,182,177,14,219,216,208,218,26,236,213,239,78,183,53,85,65,252,222,179,167,189,186,32,189,104,58,14,126,223,9,83,41,183,190,25,191,240,249,223,247,0,203,235,85,211,64,105,40,2,227,227,187,206,174,24,198,83,30,25,55,223,48,68,72,240,233,31,219,243,207,225,19,227,248,246,63,220,66,48,32,242,234,210,197,194,200,34,229,71,61,48,45,232,41,85,34,207,247,34,190,238,232,226,21,8,240,237,64,198,20,69,27,18,198,233,193,208,192,5,199,103,79,248,40,235,31,78,43,232,215,251,224,200,238,220,250,238,191,224,54,211,45,76,36,236,224,190,223,204,186,29,225,77,44,5,89,252,50,43,79,208,206,246,217,230,192,210,28,236,225,213,42,216,64,55,44,9,196,169,225,204,204,36,163,87,47,45,64,199,5,101,49,194,228,17,209,190,225,227,21,234,190,8,57,188,63,89,54,227,230,172,191,165,194,39,213,82,80,4,80,231,20,73,54,196,180,234,198,193,207,226,241,23,218,243,74,189,32,50,49,17,222,181,168,189,186,9,176,81,55,18,95,205,25,70,33,186,203,235,0,140,206,234,213,71,28,11,196,180,157,236,168,14,203,55,249,78,252,232,227,207,40,144,147,147,158,139,75,64,62,76,32,42,211,223,170,195,141,240,54,12,99,74,232,177,166,210,246,165,175,64,178,66,45,235,88,97,17,184,194,157,86,210,254,212,201,93,78,74,228,234,48,180,136,47,47,220,251,220,29,192,171,79,21,39,132,179,36,204,139,136,65,86,96,182,20,190,69,172,91,20,14,163,234,178,207,95,204,136,229,204,86,87,31,32,230,150,60,59,105,92,10,232,186,42,33,170,90,241,189,227,142,176,222,227,227,75,171,173,251,31,13,83,151,97,203,157,90,16,177,44,158,208,178,248,210,42,180,96,84,233,96,196,145,238,234,171,14,37,200,3,30,155,214,83,21,194,66,192,51,95,56,60,12,227,0,17,21,209,62,157,41,227,231,203,57,29,197,201,61,154,212,35,85,65,244,98,144,73,223,31,92,165,13,227,191,59,239,94,20,175,224,35,196,72,84,11,220,165,76,63,10,1,200,198,102,149,239,238,140,141,201,150,39,81,14,21,108,244,84,190,56,224,162,239,165,17,223,248,10,254,92,172,89,140,132,58,99,42,4,195,179,169,222,71,204,75,76,54,18,150,191,17,206,212,75,169,93,56,164,0,255,190,4,61,43,131,246,142,132,84,89,238,229,75,176,239,168,72,1,56,72,208,149,138,147,222,228,74,65,181,184,87,181,87,173,15,242,242,182,230,199,67,2,184,172,81,54,56,252,192,17,242,167,191,85,50,81,223,1,226,236,44,165,157,184,149,12,95,221,83,11,94,175,22,85,98,55,32,85,173,178,28,176,248,233,251,200,229,162,73,157,176,145,193,68,72,184,8,97,180,49,164,140,13,100,176,11,44,11,37,15,36,36,6,95,229,84,56,35,56,145,76,77,235,168,164,216,28,74,185,152,241,226,41,254,84,200,200,44,134,135,209,223,164,154,4,161,40,252,229,41,50,238,207,225,94,204,164,143,151,29,5,178,4,87,247,252,37,170,172,163,225,130,234,172,75,137,227,47,99,207,156,7,213,109,73,253,228,173,17,4,250,34,179,92,202,165,98,223,86,166,85,147,160,230,181,133,183,158,135,31,187,157,240,66,73,58,132,153,50,178,27,149,148,43,143,30,228,148,242,172,155,101,71,246,184,31,96,49,34,3,142,222,62,56,37,152,70,11,58,233,70,192,12,35,204,41,208,234,68,92,76,134,241,237,52,70,79,239,49,153,20,67,24,68,89,26,11,5,72,220,220,42,243,222,196,94,89,149,235,12,195,84,160,214,96,214,148,54,34,224,68,230,239,218,201,226,231,5,45,206,224,226,227,58,42,231,95,238,230,175,48,214,53,56,232,145,247,147,172,218,25,19,93,215,58,66,70,4,20,74,250,53,55,230,233,23,166,236,5,229,237,52,14,58,176,198,8,2,158,94,233,156,31,16,65,86,28,131,253,104,5,66,210,205,53,107,179,184,221,213,145,175,198,144,226,219,0,143,147,30,78,178,32,195,143,86,138,238,239,24,134,195,11,1,86,15,34,165,226,181,23,249,216,14,40,77,158,79,70,190,237,155,151,55,242,214,168,137,67,151,50,165,231,40,68,170,237,68,204,181,165,60,77,171,133,196,57,188,161,9,217,102,77,242,194,67,23,56,83,238,199,177,67,55,238,74,13,3,11,191,187,39,171,215,12,136,77,147,191,245,198,64,46,105,30,27,19,193,39,86,202,87,26,31,36,163,21,103,148,71,147,83,54,228,91,198,137,228,63,241,204,24,205,15,188,170,21,33,182,83,151,224,85,9,213,187,173,194,31,200,50,15,78,5,79,51,129,77,80,42,148,220,41,200,231,56,5,145,235,30,60,224,91,64,237,244,152,166,46,230,163,202,253,89,138,215,1,220,145,55,13,211,137,175,2,163,219,67,85,184,135,253,173,252,238,214,83,237,183,196,68,15,90,192,23,168,234,247,188,203,205,67,237,212,159,137,55,150,69,216,13,231,38,179,2,51,72,159,23,11,27,18,36,28,213,78,11,190,73,21,207,212,64,175,171,254,226,80,96,219,86,233,141,96,17,187,217,170,208,23,32,174,207,84,175,203,68,9,243,214,247,75,31,0,6,140,227,59,53,60,35,14,8,55,48,238,80,10,205,249,42,83,90,73,40,105,90,86,249,252,52,231,97,35,251,222,74,51,38,35,14,35,72,245,3,14,75,188,52,63,206,255,54,67,16,90,76,93,23,35,219,49,86,204,69,50,218,224,58,14,19,45,29,52,59,245,240,48,19,199,12,29,238,50,68,54,5,61,41,45,24,63,237,48,26,218,17,252,240,211,10,30,2,50,4,73,49,239,12,64,14,206,22,3,217,24,12,77,42,47,57,99,61,53,4,16,44,239,22,53,252,184,67,28,16,17,73,30,29,4,9,13,35,230,21,56,1,20,58,65,71,37,53,109,31,28,5,16,81,241,28,15,218,214,67,55,42,15,59,15,22,8,35,48,34,221,23,255,196,53,52,78,38,34,24,92,42,29,205,2,49,224,59,0,253,228,67,76,43,47,77,39,51,29,22,40,18,219,50,28,188,23,67,37,15,57,49,87,48,67,242,240,47,234,88,46,20,217,31,77,2,36,29,27,74,231,4,74,26,219,62,41,203,10,1,41,58,65,72,76,35,57,234,36,57,200,22,21,207,217,64,64,7,21,31,22,40,12,17,30,58,217,74,15,246,2,65,103,52,79,45,104,21,65,244,29,53,214,56,31,236,248,27,54,51,57,72,76,81,12,1,61,23,195,49,40,218,4,23,59,90,47,32,127,49,83,223,43,55,212,91,40,24,212,56,24,15,26,35,41,29,24,1,38,34,227,13,34,243,28,37,88,40,101,81,110,45,48,246,22,82,188,95,10,220,232,13,59,57,79,71,53,76,254,250,55,34,198,36,64,217,2,54,92,20,53,50,69,34,56,224,6,80,252,98,10,11,205,88,56,32,46,23,47,55,243,13,58,68,173,49,11,248,21,76,60,38,81,90,97,88,70,207,16,39,191,82,69,16,222,59,29,39,52,29,31,76,27,228,82,32,222,14,62,235,47,54,66,57,28,57,103,26,39,222,254,54,191,91,64,233,191,67,8,3,80,43,17,27,33,32,33,69,231,49,52,0,13,27,78,27,99,81,73,28,81,227,43,91,232,58,21,228,244,53,45,47,60,29,48,46,20,33,58,45,237,68,57,194,49,54,60,61,81,29,104,47,37,189,242,70,6,76,33,229,223,69,22,47,58,39,29,87,252,13,13,39,199,5,19,219,24,37,88,48,74,22,69,38,45,223,10,29,201,54,5,233,201,60,49,62,79,7,71,64,250,9,43,13,230,12,45,254,28,33,38,26,90,36,80,36,66,246,20,82,222,87,62,18,246,58,31,55,56,41,68,53,19,6,57,65,212,33,12,199,44,69,82,16,50,45,95,37,81,236,233,52,238,67,58,218,224,56,46,48,51,59,63,43,12,7,54,68,185,10,24,255,35,32,34,32,75,81,80,48,76,211,9,61,248,81,8,9,239,62,38,55,56,53,65,76,246,33,62,36,208,40,62,2,43,37,99,36,92,74,122,88,50,218,255,63,240,92,38,8,182,45,26,52,22,37,12,90,242,243,32,63,197,18,36,229,251,27,76,72,84,69,69,71,80,209,32,48,209,77,61,251,211,55,38,25,58,68,40,45,10,23,47,22,230,31,32,244,244,68,85,23,51,29,61,60,33,195,15,51,220,43,49,13,181,29,79,25,22,24,17,31,26,239,58,49,229,59,13,239,241,41,81,67,31,58,89,19,46,235,233,20,235,32,47,10,227,42,21,22,31,16,60,39,248,2,36,65,227,250,40,194,240,27,42,51,21,67,96,34,45,225,250,74,19,33,0,251,250,59,8,31,66,59,33,68,242,242,60,58,205,7,22,251,6,9,61,34,61,19,90,56,64,239,238,22,9,74,45,231,223,24,55,254,11,48,252,14,22,245,38,73,248,68,57,3,255,17,25,8,32,51,66,35,63,226,28,61,232,43,5,0,236,22,62,35,34,27,45,54,25,4,24,41,188,19,27,246,25,26,34,23,75,52,105,77,32,223,8,46,243,70,50,5,236,29,71,28,58,68,39,91,38,33,9,68,207,58,24,239,11,73,55,44,40,27,63,55,62,235,2,35,254,65,14,215,209,53,28,24,76,18,33,46,244,22,66,41,202,24,52,253,15,33,88,23,71,28,86,28,62,9,1,34,246,67,27,238,219,47,23,11,241,224,203,93,106,236,248,232,197,182,145,90,205,34,242,227,201,208,7,100,5,57,156,111,178,164,43,72,78,8,144,163,20,191,198,90,100,19,255,83,109,88,207,206,65,48,91,28,243,40,161,108,33,205,212,195,241,224,237,152,118,234,92,137,43,45,142,93,82,213,147,3,230,251,91,217,172,62,152,218,35,36,31,20,84,244,169,140,113,236,240,102,168,101,143,234,255,254,152,30,45,107,160,80,165,252,148,33,51,56,193,13,71,19,18,252,21,205,184,27,86,139,185,140,58,233,71,195,136,134,178,92,214,161,31,5,243,226,57,202,247,171,174,139,110,248,186,19,96,243,113,231,215,136,226,235,79,202,152,88,254,240,21,65,235,216,85,164,152,100,163,47,45,247,107,227,57,92,50,215,86,56,42,108,206,68,139,94,60,152,83,244,23,229,149,129,230,152,246,44,14,102,240,37,2,76,96,10,193,63,189,152,162,60,53,20,93,237,219,97,176,72,251,101,100,62,174,45,177,38,65,67,192,52,229,198,94,118,216,76,48,237,203,234,182,88,58,72,107,227,72,87,156,244,139,151,228,4,103,39,27,15,87,137,248,3,148,231,109,11,114,242,53,207,163,64,33,251,236,159,149,165,228,204,165,69,148,225,199,47,42,205,59,18,153,142,63,160,154,16,51,132,104,33,47,98,64,111,46,157,243,65,71,99,47,147,53,88,227,177,10,156,221,147,214,220,255,17,24,32,160,142,207,161,106,91,234,246,109,187,31,110,71,1,116,149,24,19,5,220,229,0,206,12,51,24,149,10,23,53,186,141,206,57,12,255,159,147,220,209,222,141,192,192,203,152,205,230,239,31,152,23,194,14,194,104,106,50,101,168,233,246,102,175,74,206,91,4,49,137,36,85,47,196,162,115,14,151,142,235,200,74,142,159,0,102,74,189,4,185,140,205,137,172,228,55,162,145,193,16,157,36,112,176,176,206,70,225,192,35,222,106,148,233,57,204,174,105,39,216,215,216,53,92,33,39,111,206,186,147,199,141,195,186,98,60,217,106,2,58,212,98,247,218,175,236,187,200,136,147,228,138,204,200,25,231,8,83,153,15,140,150,247,105,18,237,109,133,19,61,219,56,164,235,197,131,180,30,157,158,63,53,165,155,233,168,87,143,180,201,52,59,154,238,50,181,61,158,182,43,1,63,220,221,3,199,189,39,96,137,255,92,207,8,97,211,71,175,7,152,79,44,92,81,177,181,68,77,227,57,162,60,251,60,75,80,9,245,45,178,222,8,180,31,159,45,213,142,161,225,57,42,199,204,73,57,144,183,177,190,212,87,58,137,24,243,254,104,198,165,73,205,1,200,43,39,139,152,249,177,153,11,20,184,27,74,178,27,247,250,255,140,80,65,216,135,87,10,253,115,167,194,24,98,47,101,32,2,39,46,139,230,210,30,189,166,138,244,151,130,27,201,31,185,212,20,10,153,31,135,44,87,45,182,11,108,205,179,215,163,95,175,217,11,177,178,81,22,162,49,146,145,193,170,113,41,236,132,45,144,94,219,225,68,239,80,238,231,115,228,2,41,211,72,218,89,179,65,202,82,154,197,180,96,138,39,177,254,195,52,224,18,84,225,26,46,182,22,195,108,3,4,15,189,199,196,229,233,232,57,97,32,50,80,27,136,206,95,3,182,10,87,192,223,48,7,140,229,49,150,138,202,218,110,245,65,25,162,80,218,86,145,232,225,237,19,139,189,208,69,183,40,207,57,15,26,50,224,21,117,60,64,199,184,52,230,252,20,159,139,181,105,198,25,12,211,205,131,82,153,226,230,86,82,80,129,164,90,78,234,154,236,202,233,83,2,158,251,230,23,104,4,174,250,43,213,105,8,234,160,51,222,94,83,79,170,117,81,165,33,35,204,188,79,92,100,170,239,143,159,27,61,132,252,103,222,72,221,85,7,247,53,108,237,78,140,252,17,92,33,206,135,135,180,244,229,255,37,113,176,27,183,99,226,2,144,90,184,148,90,139,177,132,96,255,205,30,230,8,75,22,65,55,94,85,101,131,171,41,103,231,135,219,250,80,131,227,4,157,234,247,20,50,48,227,140,211,157,182,195,110,139,98,4,18,31,252,214,72,234,222,136,253,92,84,78,188,214,106,247,70,22,71,32,39,221,60,50,165,66,71,253,252,15,96,72,32,255,25,96,6,211,30,18,188,30,71,45,202,66,16,233,254,31,236,42,224,32,68,70,185,70,85,194,30,241,11,236,107,76,76,104,62,237,51,100,174,33,255,233,16,241,54,9,249,41,18,47,246,50,63,239,203,69,82,218,70,30,13,244,77,254,62,32,49,207,65,81,39,49,239,214,227,236,254,254,5,242,42,18,252,37,44,78,202,23,253,212,34,244,79,250,72,8,59,36,21,223,48,71,216,6,62,204,229,230,253,67,252,236,68,64,21,247,64,250,181,248,90,209,18,235,23,22,26,18,57,51,246,197,50,22,186,38,36,212,169,32,46,250,2,233,236,63,15,36,247,2,205,55,23,188,252,58,56,45,21,238,81,47,41,251,12,112,159,63,71,46,162,248,56,235,64,30,244,3,251,30,251,55,177,13,54,247,37,6,15,45,82,60,36,95,25,230,57,120,199,78,24,245,169,42,4,43,2,45,3,24,47,61,48,28,231,242,51,171,76,10,61,34,77,42,52,107,56,232,9,48,205,83,70,39,246,23,59,69,47,72,230,11,38,13,28,14,182,2,3,18,239,81,45,29,93,5,111,106,47,31,234,40,33,60,44,228,214,21,61,52,70,7,252,70,223,53,25,250,242,34,29,208,242,64,85,31,26,53,51,56,24,219,17,71,12,13,51,202,188,12,50,238,75,12,245,78,27,43,238,68,214,73,18,195,76,40,86,241,25,248,113,12,5,0,29,127,236,28,37,37,236,48,3,47,234,243,0,246,0,219,45,251,222,235,80,249,25,243,14,38,38,50,113,59,244,200,10,124,216,94,13,26,208,33,20,238,27,69,60,88,27,241,48,23,210,47,23,182,7,244,85,3,108,249,59,50,74,230,251,122,197,17,29,243,169,76,39,38,247,36,227,53,13,8,35,70,175,242,17,2,11,29,62,30,63,244,35,89,81,239,68,38,221,29,234,200,166,73,67,71,47,28,65,66,235,41,62,67,231,52,88,22,70,41,41,70,120,239,114,64,81,231,251,41,228,7,55,226,249,42,233,252,247,42,250,243,8,12,14,243,233,33,80,231,53,28,72,244,7,67,42,48,237,255,33,76,202,26,67,251,177,52,238,4,41,51,22,235,231,254,25,35,221,255,90,205,49,13,17,67,88,48,19,77,46,19,45,15,212,55,79,1,0,12,22,50,41,2,32,22,227,249,64,22,201,51,58,251,54,60,52,62,53,39,41,18,241,205,249,22,220,53,71,249,202,248,250,57,58,59,38,50,230,33,59,67,173,40,33,176,236,236,243,239,90,67,11,73,248,232,60,29,206,76,1,227,8,252,23,29,3,41,230,14,24,40,11,28,175,234,58,176,22,27,27,75,252,245,64,48,54,205,42,27,246,254,232,32,196,33,237,248,44,5,19,254,247,5,64,54,246,254,1,177,253,234,88,18,65,36,82,79,17,229,69,92,246,31,12,208,235,16,30,67,5,43,237,41,251,56,30,242,248,6,86,194,33,78,71,241,107,254,78,52,70,164,230,63,250,55,237,208,7,37,63,73,48,0,6,4,35,244,2,15,170,36,10,14,44,5,50,22,14,10,116,29,250,29,12,51,208,46,41,205,225,6,51,253,28,245,26,63,242,37,40,27,231,254,7,0,15,225,29,37,34,234,66,42,78,232,13,75,232,37,66,16,183,56,53,250,239,57,66,44,226,224,23,248,205,48,245,244,254,55,234,57,14,40,58,38,17,248,60,37,240,7,69,19,243,46,225,47,232,54,231,8,26,216,61,248,1,18,71,197,54,19,8,246,85,250,42,21,14,248,16,108,18,2,35,242,172,232,33,36,67,15,16,236,235,227,67,254,203,22,62,17,40,229,6,8,9,66,22,30,39,211,65,89,0,251,33,29,184,237,23,58,64,238,234,29,46,42,61,58,217,23,80,231,50,67,246,2,16,72,18,68,60,227,4,74,224,78,27,232,236,248,39,45,3,53,250,32,9,54,34,54,229,72,87,232,63,14,63,234,55,39,98,255,232,19,245,58,171,242,7,30,202,52,17,68,45,70,5,241,10,240,31,244,174,30,26,13,6,16,79,255,115,1,37,46,253,214,66,99,254,58,3,44,250,76,72,19,15,31,63,22,62,225,62,17,201,9,3,225,63,80,60,58,102,12,78,26,80,244,31,25,202,85,14,252,243,70,39,59,255,32,13,43,0,31,251,63,168,47,1,10,44,42,31,53,115,65,57,45,252,236,52,90,232,73,34,254,212,16,0,36,252,37,49,16,28,28,254,6,196,44,65,208,27,44,54,11,77,71,47,86,33,246,248,21,10,81,55,246,1,35,29,244,2,0,46,43,27,29,52,28,188,25,59,200,16,7,30,25,9,53,60,17,15,6,42,97,243,53,10,223,254,60,27,48,1,12,32,77,11,34,64,26,209,61,26,221,253,4,96,67,4,46,91,81,29,210,41,71,208,30,0,240,206,27,18,48,32,23,5,16,234,30,68,27,191,19,55,204,8,68,39,43,37,7,66,82,46,244,253,67,217,58,254,218,192,70,0,35,16,48,17,79,12,250,18,63,201,33,2,178,48,27,81,40,48,77,127,31,44,195,250,26,242,23,31,248,241,77,47,37,4,43,60,7,24,223,28,15,233,65,72,192,242,26,24,67,32,18,64,92,81,10,32,69,206,10,35,223,173,74,29,6,13,3,60,13,239,255,35,49,212,63,60,255,12,77,73,38,33,9,123,76,11,202,248,76,214,91,41,1,244,20,52,55,39,19,13,80,42,49,55,4,231,27,28,218,40,76,54,69,91,81,97,78,67,237,24,47,6,79,59,207,193,50,10,250,34,57,38,20,7,253,42,66,230,6,54,237,37,38,88,20,81,25,58,56,32,243,66,88,217,79,63,211,183,252,60,25,0,56,15,19,50,24,54,58,209,41,35,181,13,43,69,31,76,41,105,21,24,241,33,33,2,41,69,249,253,39,19,60,80,7,40,83,2,238,47,59,160,51,45,214,245,9,59,85,75,8,59,89,89,181,57,34,220,38,76,203,232,14,48,2,68,6,52,41,240,11,45,37,226,60,12,199,69,12,98,2,41,22,74,39,69,188,241,48,240,50,2,215,201,23,48,39,69,250,251,72,47,29,5,74,201,250,70,11,5,4,53,43,106,76,122,43,72,221,255,88,10,80,31,229,177,1,1,21,16,246,66,81,16,225,54,253,163,47,38,214,247,25,55,26,52,53,120,48,28,185,245,95,215,16,5,226,251,0,29,67,14,67,252,51,243,48,43,65,225,54,74,255,63,8,56,54,66,49,107,41,47,219,243,17,253,75,60,250,188,58,62,25,16,1,255,23,247,234,11,4,238,10,51,226,36,67,63,56,24,7,104,13,68,236,10,33,214,67,12,236,224,14,250,38,9,65,29,72,247,245,1,70,162,67,252,237,36,62,36,255,103,62,65,53,30,250,0,94,217,53,57,17,241,70,18,52,63,30,36,42,43,2,39,2,211,10,28,253,67,70,43,28,72,13,120,55,57,22,30,49,211,51,1,5,238,250,252,15,74,52,11,60,229,31,60,71,179,42,76,223,51,22,22,72,22,20,54,71,71,17,20,60,251,81,26,215,226,49,36,64,23,33,252,33,45,46,253,16,241,43,70,242,44,65,93,78,38,60,110,79,36,185,6,37,184,93,45,252,188,69,49,0,251,51,19,9,227,244,18,38,207,67,16,247,247,63,71,67,93,15,45,31,79,191,253,37,226,43,25,2,194,23,54,27,65,63,255,8,232,226,248,251,229,23,21,1,6,30,10,42,81,55,55,73,67,196,3,90,29,41,248,30,251,63,250,18,64,37,9,249,33,228,38,1,220,4,61,214,248,24,64,16,35,53,108,81,49,226,61,92,222,29,29,10,255,42,59,5,24,32,2,69,47,23,53,62,212,251,63,249,1,54,52,43,83,1,87,72,1,233,14,36,245,44,15,25,4,252,244,16,253,21,16,23,235,9,7,40,178,43,6,188,245,37,34,45,51,2,78,94,24,221,35,103,39,5,42,234,198,20,246,253,12,61,250,88,7,231,10,3,178,3,56,192,2,71,89,73,96,10,112,55,59,220,8,59,233,22,44,240,246,53,17,250,4,42,53,31,236,238,1,2,180,26,28,240,252,21,51,66,74,73,83,92,45,222,12,49,254,71,18,238,229,46,9,67,21,40,18,15,229,10,78,62,248,16,6,248,55,17,29,83,56,53,122,25,27,216,255,64,196,22,10,25,202,20,42,49,58,14,230,71,231,3,3,5,225,15,91,0,22,61,79,226,15,33,6,102,242,190,76,72,236,233,71,26,151,73,22,238,74,53,7,75,58,9,225,65,165,219,250,29,16,28,97,79,50,41,10,253,40,224,78,46,9,83,225,39,244,24,74,74,40,249,24,21,5,23,226,67,172,239,23,237,58,48,38,33,64,3,24,64,7,221,52,51,247,11,39,11,197,228,24,3,5,39,51,39,222,7,62,34,198,70,24,4,70,254,238,48,255,229,73,252,35,198,15,118,5,242,1,198,183,254,74,23,67,42,35,51,249,246,57,70,204,243,59,36,47,61,6,226,64,75,66,6,240,31,31,47,205,73,225,36,200,63,246,234,233,231,222,42,5,26,21,14,149,220,244,207,13,64,40,56,253,226,35,67,56,10,41,120,228,37,2,29,170,232,238,12,12,31,4,84,1,55,74,58,168,239,89,3,66,5,35,34,61,233,65,41,7,235,58,11,250,19,67,206,238,60,48,244,51,68,12,38,47,0,59,38,230,223,254,207,253,57,78,26,90,234,119,17,56,7,237,127,143,241,28,8,1,50,45,9,77,43,225,71,3,26,71,66,222,227,62,10,35,7,1,247,101,33,98,101,75,18,5,109,176,28,8,6,175,37,80,56,48,250,37,15,249,253,44,22,179,30,52,165,14,11,72,38,25,27,105,8,63,252,242,88,4,244,18,209,223,233,79,223,224,75,69,57,211,238,50,243,237,42,97,198,71,247,4,49,16,50,75,24,9,13,46,118,242,81,12,39,214,251,72,231,47,66,4,45,241,62,36,57,215,43,27,214,38,64,61,18,81,231,94,48,61,1,35,55,142,45,53,214,203,48,233,71,74,2,20,68,50,0,22,246,195,44,68,246,84,64,12,34,22,72,44,73,245,225,15,105,161,41,61,243,240,235,55,49,21,54,27,10,239,218,56,241,158,224,15,227,75,77,67,73,17,74,14,81,54,233,26,107,190,249,220,19,162,63,43,7,28,61,11,18,49,11,23,40,200,45,72,17,40,228,7,38,46,70,52,80,0,197,27,38,216,21,75,224,224,220,75,254,27,255,10,57,31,211,12,14,209,233,81,0,74,7,60,255,68,42,37,6,73,37,17,80,213,40,233,199,199,63,231,237,54,8,68,51,206,58,44,39,186,255,18,240,43,234,84,50,247,244,252,19,250,246,21,0,221,25,18,205,164,43,231,25,6,20,3,67,15,251,226,224,176,71,232,189,229,226,246,241,7,47,88,102,73,249,46,54,251,85,66,46,243,29,26,15,40,8,67,30,42,62,4,76,150,41,48,181,54,71,248,1,19,7,40,76,74,212,41,105,221,237,54,44,162,249,240,14,56,232,58,244,2,210,34,17,4,35,83,25,78,11,250,13,83,48,32,17,58,204,50,68,213,232,63,195,195,2,232,48,238,9,225,4,54,2,24,49,214,30,243,15,35,28,62,67,241,52,88,85,255,225,24,48,168,16,73,220,242,252,1,36,38,246,44,56,12,251,64,1,162,56,86,5,251,6,96,11,29,18,109,83,253,177,248,33,201,240,75,22,206,27,12,73,225,10,57,53,231,15,31,239,163,64,7,178,31,22,85,240,2,236,7,23,252,10,229,23,158,62,18,228,245,226,54,6,0,221,67,23,238,231,9,232,237,61,60,178,12,14,40,240,4,73,53,84,59,239,221,19,194,71,68,237,253,227,19,0,43,243,34,0,208,53,36,60,3,46,72,29,78,237,45,43,14,44,88,98,25,237,20,75,196,239,240,23,223,220,27,35,12,32,18,77,52,3,68,34,158,47,81,12,239,254,245,248,79,247,42,253,37,43,63,26,210,4,27,7,229,58,216,217,227,35,20,21,64,39,0,21,164,221,67,183,7,14,21,33,45,6,48,15,26,254,30,80,251,81,230,32,1,219,235,58,47,253,17,56,229,55,42,4,168,73,36,188,58,81,69,44,48,24,254,82,32,31,50,70,9,248,21,29,246,9,15,35,226,13,46,235,53,238,254,60,190,61,67,207,47,68,76,32,82,33,4,248,31,20,45,104,198,13,239,252,155,223,247,75,29,248,69,51,214,53,33,40,180,25,13,173,37,242,54,247,83,17,62,254,9,15,56,36,238,80,3,46,156,236,26,26,37,33,52,55,255,17,60,39,170,80,38,192,56,71,56,88,50,14,17,55,15,211,246,60,184,84,248,241,172,236,235,225,226,37,10,72,231,59,223,20,157,240,17,225,38,55,0,247,28,224,74,31,255,229,16,78,4,39,20,199,201,82,78,48,239,233,36,76,51,243,230,30,191,41,49,253,18,72,78,22,246,55,96,21,28,59,44,8,228,64,241,250,198,50,75,7,47,25,22,54,23,35,81,223,196,8,71,251,40,57,7,255,46,78,111,97,35,211,40,80,250,89,15,25,162,249,228,234,70,11,13,74,250,32,255,48,193,245,76,185,25,23,91,249,53,81,46,30,52,11,234,100,206,83,68,30,194,238,245,21,50,70,230,55,44,62,2,17,170,40,27,212,24,233,64,62,11,77,91,41,86,214,85,58,187,25,25,214,199,17,62,19,11,27,251,7,222,0,11,10,216,62,82,12,9,38,65,241,95,229,99,26,83,239,72,127,179,94,5,210,232,20,26,2,27,40,15,65,66,218,16,26,190,44,105,246,63,8,108,61,103,4,117,101,52,228,51,43,191,15,240,242,154,72,53,249,12,69,64,27,219,14,46,75,180,72,53,29,22,24,40,26,119,83,39,92,61,254,51,62,35,68,66,199,5,54,83,44,244,26,243,93,37,237,64,87,215,20,79,216,51,26,16,250,95,15,84,25,14,199,49,36,225,26,53,55,9,26,16,3,2,12,25,71,249,15,13,248,209,242,84,199,93,9,105,18,95,50,98,69,90,240,33,90,187,62,33,17,214,14,65,39,21,61,222,38,14,23,27,44,154,249,107,196,242,76,24,16,57,84,65,6,15,228,1,63,199,17,249,16,12,50,67,31,53,47,39,79,14,0,54,254,234,249,37,241,19,246,20,4,59,89,93,90,32,237,5,65,241,62,8,242,160,4,54,29,63,4,245,5,40,214,46,233,155,233,71,184,88,64,62,234,87,74,70,1,72,9,32,123,179,247,8,198,2,57,56,251,247,231,241,53,35,40,255,23,243,1,252,26,18,237,80,34,27,33,27,4,80,196,59,86,231,89,11,244,249,30,249,81,234,32,17,91,0,7,231,4,150,81,56,233,251,42,16,17,5,24,113,62,2,209,78,12,14,38,8,12,233,31,254,47,250,11,21,242,1,62,232,7,211,221,244,208,234,220,79,10,61,233,73,44,62,231,87,75,11,28,28,206,19,1,33,222,15,19,15,34,5,57,47,81,167,25,251,21,41,34,23,56,43,66,72,250,81,253,231,86,238,237,21,42,208,33,49,247,42,252,68,68,254,5,225,82,221,244,83,206,72,10,233,37,59,3,86,79,55,213,6,44,244,236,253,246,198,15,19,3,31,28,12,34,61,30,240,82,9,54,243,252,235,245,57,237,20,52,29,12,84,36,1,84,44,16,40,1,174,239,249,234,65,51,253,22,27,9,230,19,191,10,53,1,46,228,247,25,49,232,65,29,21,245,249,47,27,45,248,246,250,229,82,76,233,70,4,3,6,60,8,228,5,41,57,232,9,70,62,42,16,2,40,71,228,180,3,92,182,49,247,26,161,37,32,79,13,54,80,242,53,54,66,246,146,18,47,16,239,10,44,18,69,8,248,81,57,19,6,18,251,74,60,225,167,249,64,0,9,33,29,5,240,217,10,32,163,76,49,172,32,241,43,2,6,241,70,47,248,0,232,89,201,4,52,243,227,236,41,35,21,50,71,59,40,46,33,24,204,70,248,189,19,58,66,26,55,76,61,55,35,202,47,50,208,1,253,4,4,37,253,247,242,227,77,239,253,2,255,47,176,52,238,251,74,251,40,16,45,60,28,41,64,217,8,71,37,50,251,206,170,1,240,31,223,45,40,48,212,45,15,43,183,18,56,33,43,27,40,12,242,80,77,89,10,198,92,77,243,25,54,15,214,21,24,68,6,4,238,65,226,27,35,85,169,250,87,176,41,16,1,250,97,75,27,87,70,213,69,122,222,80,248,194,228,69,249,4,62,79,56,54,4,238,24,23,172,230,242,215,35,247,12,86,50,54,112,83,84,228,38,99,176,85,21,24,184,14,238,13,78,43,240,59,202,30,25,65,245,227,96,233,64,48,60,233,63,19,41,33,74,235,71,113,12,61,20,40,224,238,251,56,233,15,146,99,165,57,87,35,7,166,67,1,209,10,222,8,176,168,177,190,139,9,133,220,111,250,94,40,172,213,55,239,240,36,78,171,182,99,81,225,242,243,8,56,220,166,158,223,186,245,223,49,149,179,197,191,235,138,99,52,221,17,9,10,50,32,198,178,132,177,6,167,35,132,142,253,208,4,54,254,17,146,57,49,200,220,38,156,164,182,165,50,230,152,2,66,200,242,91,18,246,8,0,129,215,234,92,138,188,172,161,28,37,10,55,188,72,175,255,164,156,15,43,171,157,203,231,210,209,75,80,159,175,163,89,6,50,40,176,221,151,175,2,39,18,200,136,165,194,70,157,16,214,10,232,48,171,0,5,23,201,88,136,184,233,193,171,54,54,3,131,139,172,251,13,140,196,170,70,214,143,229,203,1,139,59,60,62,172,48,27,69,208,86,7,169,53,188,78,56,142,79,161,208,46,42,146,13,158,234,10,158,43,183,44,146,221,8,167,159,197,52,9,204,236,49,158,27,209,237,13,131,87,247,230,237,62,170,70,7,251,97,29,166,178,89,186,207,61,161,4,70,26,208,102,251,239,33,69,163,36,1,175,225,166,251,52,146,64,153,14,167,34,73,58,160,91,215,165,233,62,239,15,247,164,152,15,192,219,25,197,174,44,223,63,209,181,89,199,211,169,144,171,162,67,9,137,141,226,4,213,67,112,45,72,174,32,21,152,93,251,212,89,232,161,39,31,54,242,184,227,237,229,20,88,130,140,138,15,48,19,217,253,97,201,143,247,29,89,54,171,201,43,6,149,232,19,42,32,11,245,184,144,229,175,250,133,5,85,197,181,219,2,133,191,228,253,44,96,97,49,181,27,83,58,141,39,70,44,101,243,102,73,40,67,163,251,195,47,223,63,198,169,29,153,95,198,166,15,84,134,251,190,173,2,2,67,252,137,5,250,245,181,154,88,1,54,233,173,56,191,88,86,145,198,191,142,147,101,73,67,72,207,173,253,59,66,30,167,80,203,214,144,181,168,132,49,214,36,134,141,11,20,8,26,178,205,241,64,238,19,39,99,215,208,13,207,167,232,185,82,200,53,186,159,16,232,62,240,90,78,5,167,156,234,165,43,166,10,53,209,31,17,48,214,40,250,192,192,165,132,227,208,97,93,14,251,35,186,161,145,157,190,137,68,10,202,15,18,245,19,215,51,192,82,59,234,234,158,70,105,247,178,2,229,233,81,190,52,229,233,138,50,71,133,233,251,26,218,237,83,45,29,160,78,194,20,250,206,61,7,72,223,174,139,205,75,75,26,141,25,186,30,143,17,229,193,237,238,46,27,217,237,151,195,140,210,244,178,72,55,15,35,88,195,177,155,91,233,92,39,182,229,173,148,161,230,178,7,226,146,61,154,144,177,101,60,197,237,5,89,67,154,28,91,60,203,33,178,174,139,98,5,194,11,251,254,80,77,135,87,70,206,241,177,26,137,147,229,5,87,134,223,78,20,134,12,89,244,206,215,227,251,221,99,64,92,244,196,163,221,11,224,177,203,135,174,212,14,55,31,41,95,54,28,201,174,156,9,230,19,91,208,100,92,22,175,56,166,74,98,55,43,167,152,43,245,174,195,51,39,63,248,189,168,96,30,63,232,87,176,50,52,39,15,21,130,32,16,219,251,64,130,164,109,181,137,135,93,173,180,244,240,206,226,67,142,100,6,186,251,185,253,63,242,2,2,83,41,72,229,214,52,150,202,15,188,91,136,69,227,75,153,83,234,75,255,38,92,62,102,182,9,88,179,5,189,164,63,203,148,223,75,254,197,172,249,252,68,219,66,176,88,165,38,10,42,241,148,245,5,167,193,53,217,9,131,136,182,132,143,60,6,22,152,140,65,167,137,206,175,88,230,61,3,186,164,151,217,210,204,43,91,245,248,37,206,13,168,35,14,177,130,190,197,68,235,145,21,248,214,249,115,232,183,185,183,99,20,76,68,73,70,16,180,48,177,29,214,73,87,177,191,44,203,188,144,137,221,251,40,198,72,221,183,15,222,202,243,42,238,50,210,235,86,16,83,72,246,191,51,156,77,29,14,25,194,78,37,252,68,229,76,192,12,220,187,136,17,192,96,96,80,158,194,183,255,21,235,248,242,39,106,59,170,188,96,60,220,71,55,45,8,36,25,14,46,22,163,251,19,21,73,27,106,239,126,0,66,91,61,25,53,124,172,52,55,35,168,3,72,50,242,43,44,26,230,60,230,231,174,248,25,244,4,255,57,82,53,234,7,57,43,40,244,124,182,48,43,42,182,48,252,229,233,5,50,13,254,61,34,17,154,249,69,208,236,82,89,77,239,24,10,8,67,255,11,91,195,7,29,40,205,63,17,18,42,0,52,6,217,253,234,55,231,12,49,250,30,2,84,16,245,72,2,8,251,235,83,6,19,246,61,188,213,51,45,237,43,254,56,54,35,254,78,87,159,44,78,17,228,12,242,243,249,26,101,51,57,220,238,110,213,90,252,245,237,76,237,249,48,238,252,24,238,12,75,11,255,11,242,184,70,255,105,14,102,226,105,94,57,193,242,118,144,57,223,206,157,52,245,247,233,3,59,16,66,208,75,13,159,76,1,248,44,18,47,41,90,232,45,13,62,251,58,113,189,16,73,39,143,44,52,19,14,231,2,4,240,207,42,54,156,76,91,2,225,37,5,229,57,51,124,80,234,11,2,101,139,92,232,25,220,231,82,0,36,55,82,84,209,215,67,244,137,43,33,225,243,39,250,50,86,6,91,18,32,245,61,118,180,0,252,195,180,233,72,242,53,57,14,54,39,65,86,249,202,72,43,173,246,45,1,61,109,33,90,83,37,5,24,35,191,9,24,223,162,228,74,54,234,19,219,61,207,218,70,245,165,26,73,224,77,244,25,24,74,9,51,47,84,201,3,74,178,7,237,241,192,43,15,241,224,11,22,93,16,53,252,21,194,66,86,218,52,85,18,246,240,85,114,65,28,244,75,113,169,73,75,218,229,68,42,230,49,240,24,236,18,250,229,40,232,49,10,171,4,17,24,29,48,40,69,83,248,198,37,74,194,60,66,237,142,80,244,240,13,61,239,19,33,228,66,249,148,62,30,9,61,243,68,38,118,72,72,35,71,29,230,116,172,30,34,229,210,36,73,33,8,84,12,78,247,252,242,245,2,226,97,160,47,46,59,14,26,31,102,43,250,216,22,104,249,8,72,241,254,233,229,251,12,51,229,247,4,208,35,228,168,241,29,251,19,62,238,251,47,8,2,77,233,14,51,50,169,17,34,35,147,226,255,12,71,20,76,227,44,10,251,253,162,235,251,16,35,4,4,33,59,27,23,60,32,37,76,46,233,24,18,211,178,41,10,32,69,28,35,87,221,228,70,52,145,44,29,217,65,255,23,11,81,248,100,30,1,222,228,5,236,36,8,9,233,23,76,22,55,13,38,85,67,255,220,235,147,236,49,164,247,45,82,224,83,21,84,24,8,185,14,10,173,7,55,9,230,77,24,235,32,41,68,30,215,228,36,21,238,54,66,243,41,43,81,45,34,238,2,20,8,208,228,35,222,33,26,203,5,68,39,0,80,40,245,31,220,68,20,82,214,249,252,224,47,9,103,2,36,78,48,21,6,245,226,52,179,89,72,7,201,2,232,40,223,3,71,19,218,4,66,255,236,10,255,255,245,16,73,42,99,58,68,105,44,231,45,127,147,58,11,202,217,17,73,248,231,251,80,241,248,37,51,35,163,28,255,4,221,9,34,23,115,29,62,31,78,200,28,45,142,51,28,18,205,233,36,22,10,219,70,31,221,22,12,19,255,5,44,161,64,13,14,33,96,55,73,31,24,185,44,105,15,46,12,184,177,5,24,70,7,50,74,21,16,206,240,49,210,32,45,194,62,235,231,81,90,70,21,47,52,14,72,58,9,29,76,36,178,67,251,12,48,27,8,23,48,237,232,45,220,244,76,239,16,38,50,226,243,71,33,75,254,237,48,88,30,12,32,200,199,7,59,243,49,77,225,54,35,230,60,26,230,252,237,243,72,63,54,47,39,69,100,44,243,41,9,26,4,49,16,242,11,8,71,49,252,222,248,11,213,230,255,229,153,70,6,227,253,55,47,47,239,246,102,2,225,9,41,118,167,248,47,198,156,49,51,78,50,74,244,55,18,49,67,227,149,68,84,22,65,44,67,75,33,62,86,21,253,27,22,105,253,54,23,187,226,29,254,14,38,61,76,16,235,7,46,76,221,254,226,242,15,17,89,16,5,14,101,29,4,233,14,105,164,9,252,33,223,233,12,53,66,72,66,242,237,37,63,53,0,2,92,7,231,28,23,13,24,237,60,66,3,241,2,35,212,244,41,241,1,21,55,239,72,56,6,245,52,57,41,69,240,68,17,184,51,244,17,66,47,248,67,36,44,236,47,4,241,77,17,247,226,44,69,245,28,25,238,234,14,237,3,230,4,225,250,35,38,28,80,45,22,26,33,4,24,31,253,51,168,25,248,205,189,20,47,49,22,36,50,233,37,233,69,60,184,71,49,33,251,220,248,41,72,252,50,26,58,54,255,14,229,0,66,228,199,47,64,247,228,32,25,255,242,236,18,2,178,39,252,20,233,43,2,55,229,223,70,28,60,43,236,13,191,52,248,241,189,46,2,1,47,10,67,230,14,42,226,57,237,65,37,179,231,234,1,40,56,40,6,75,46,22,234,31,196,14,239,232,197,65,39,40,49,25,57,73,228,30,37,27,204,226,5,174,236,56,252,65,80,62,73,94,76,190,15,46,237,47,58,14,187,245,45,30,233,48,51,45,53,34,44,62,188,59,42,237,245,48,44,20,61,5,33,77,39,240,78,69,175,30,246,245,169,229,228,233,58,230,225,233,31,31,240,78,182,232,55,23,52,228,252,244,253,23,72,10,8,231,8,127,205,72,231,222,174,2,58,246,23,53,19,79,46,4,31,33,230,237,83,242,229,51,9,13,81,55,11,58,15,5,40,27,212,23,4,16,206,33,46,44,36,227,16,239,12,28,245,227,244,224,241,228,6,239,0,34,45,31,42,81,67,42,41,58,236,23,0,216,228,225,231,24,59,60,50,76,217,237,236,244,178,12,242,242,230,6,40,60,53,249,107,21,81,14,255,25,177,0,25,230,193,8,79,10,72,49,15,238,39,21,74,64,167,68,74,207,73,246,77,68,95,234,93,92,234,229,10,66,248,55,253,238,213,30,249,68,45,13,60,247,23,213,30,252,227,242,251,238,252,33,32,40,29,30,93,9,68,231,4,8,208,48,31,239,192,56,35,58,3,31,7,250,56,231,50,254,238,13,72,208,243,3,9,66,93,45,42,61,55,243,241,84,219,41,65,42,8,35,4,59,247,65,66,34,9,223,43,19,224,52,77,185,236,6,18,249,230,10,63,89,8,3,1,35,179,60,33,240,241,22,1,25,225,250,246,239,38,253,25,45,194,242,5,191,238,5,60,17,245,49,96,14,239,38,35,10,175,4,4,218,206,21,28,5,231,19,55,14,2,33,246,76,225,229,40,210,29,55,82,43,38,244,48,4,251,3,53,52,206,36,71,236,224,43,39,239,38,241,9,48,16,54,71,63,169,68,73,200,80,14,61,229,40,229,89,90,234,232,50,66,220,57,1,28,178,250,243,233,235,46,33,27,48,56,53,31,183,245,248,185,71,11,45,251,241,247,96,19,33,16,40,99,197,81,25,198,11,21,19,11,248,23,55,61,254,36,23,65,249,235,237,7,42,245,10,33,70,230,100,87,243,225,71,35,230,13,10,234,243,40,245,255,41,253,70,29,232,56,253,15,192,19,16,227,1,13,92,47,27,255,92,30,253,42,19,75,14,48,18,42,255,30,231,37,68,253,66,48,31,35,15,13,184,28,250,193,69,229,64,12,75,72,3,4,39,197,242,86,236,45,45,5,252,221,9,24,17,42,245,247,235,32,225,225,164,233,244,8,59,63,34,48,28,253,19,64,1,206,3,106,5,56,63,216,188,241,235,2,14,221,45,19,228,212,247,246,157,21,67,33,70,23,244,4,11,13,65,60,53,250,45,74,241,228,22,226,228,255,21,218,47,66,249,37,254,23,8,56,239,239,18,208,16,16,255,253,5,233,62,28,236,239,35,101,4,55,22,199,235,14,58,34,69,242,253,23,49,48,58,68,196,13,38,186,248,236,238,7,62,251,31,46,29,194,79,73,238,22,20,29,225,233,231,19,35,35,67,252,210,233,224,47,201,11,88,182,232,26,73,65,252,251,86,8,17,211,52,49,247,20,249,216,253,243,248,71,0,251,52,47,39,252,64,63,206,18,39,12,228,228,22,15,44,243,247,255,72,16,4,11,169,232,4,35,231,49,249,30,43,19,62,56,251,220,5,31,253,28,19,24,70,51,60,33,62,43,13,63,235,201,36,61,180,48,231,251,204,21,35,42,74,38,75,93,2,32,51,19,170,34,37,242,247,17,65,71,59,21,127,27,83,2,38,82,224,31,31,232,202,37,84,36,51,57,7,48,231,41,16,7,176,58,37,247,26,59,80,8,53,19,49,26,23,213,238,65,229,39,6,213,183,55,0,21,29,69,43,37,26,8,40,39,232,40,21,220,5,49,20,254,65,7,82,50,30,230,44,31,220,63,29,11,204,10,15,53,4,21,65,35,5,244,46,22,242,252,5,229,15,20,38,63,9,9,38,83,9,1,31,84,255,72,254,15,221,14,62,57,24,72,37,64,238,38,65,31,202,4,44,228,247,32,41,43,81,42,89,90,66,227,54,71,232,44,62,242,210,0,62,46,14,42,23,60,253,39,59,69,231,37,4,197,16,28,33,86,83,56,117,62,28,221,14,79,204,52,61,3,249,7,52,57,13,24,39,90,32,248,29,65,210,43,27,238,32,34,67,20,26,31,110,68,68,245,255,40,207,70,9,247,227,55,51,55,38,78,80,32,29,1,82,84,185,68,14,247,44,32,100,75,75,75,112,86,81,213,252,49,235,68,62,244,236,40,68,26,18,26,16,45,27,242,72,84,185,24,28,231,58,15,103,51,44,32,109,24,75,206,47,59,216,70,52,216,232,67,15,17,81,20,33,81,246,253,35,35,196,82,59,216,27,21,71,88,40,35,64,85,25,236,246,30,252,49,49,224,218,27,63,6,67,46,45,91,26,17,57,60,178,26,35,203,252,3,102,52,109,73,114,46,45,254,43,100,186,33,49,229,179,59,54,22,77,32,30,55,231,10,27,77,176,39,38,233,13,48,107,36,39,90,69,23,46,220,246,74,190,87,55,15,179,47,29,55,48,19,38,42,246,232,32,78,222,45,39,187,2,38,32,18,41,17,111,66,77,186,3,69,200,80,29,212,215,45,72,36,71,43,4,73,17,232,50,55,198,12,48,199,43,68,52,55,37,32,95,66,71,242,28,42,15,44,48,14,251,43,23,36,42,54,28,54,247,249,71,21,208,48,31,226,17,7,73,34,104,75,84,49,68,240,236,56,4,40,14,230,235,28,68,42,48,34,45,32,225,248,71,44,192,59,254,190,17,8,48,76,57,36,75,85,84,179,255,67,203,49,38,217,251,58,60,253,63,61,65,57,16,7,67,59,216,37,1,211,245,18,36,42,68,28,84,82,32,4,244,87,248,74,54,207,229,12,50,5,39,36,19,36,9,235,23,32,216,60,252,200,3,56,69,42,30,73,101,39,67,255,30,60,226,17,31,249,253,20,74,51,28,16,16,56,35,40,63,52,188,41,19,186,21,49,66,35,66,55,45,48,73,199,247,56,215,41,255,21,246,45,55,255,6,66,40,35,239,226,53,61,224,24,29,222,36,27,84,5,36,38,71,13,75,192,246,59,212,15,26,230,194,14,38,29,32,31,51,61,6,237,46,60,239,25,10,205,248,11,100,39,65,74,120,76,43,227,240,65,8,84,252,18,235,37,21,44,27,72,68,60,29,11,33,82,210,14,21,192,32,58,51,25,80,51,71,53,48,199,19,80,234,77,14,221,227,28,81,10,11,20,30,30,34,26,57,4,173,42,4,204,43,42,42,32,68,34,83,87,49,220,6,41,209,50,22,235,237,74,65,17,69,41,3,78,225,37,4,57,200,42,24,246,251,56,21,28,64,11,105,23,30,184,52,34,13,18,60,5,254,42,10,47,9,52,255,26,232,11,3,49,226,52,56,216,2,55,6,15,9,8,51,36,46,208,245,30,233,53,255,249,212,33,249,7,8,47,32,39,245,252,52,62,227,31,27,194,34,10,61,38,46,37,92,9,42,5,40,35,21,75,47,216,193,18,52,7,24,10,29,69,8,34,15,50,187,40,29,208,40,63,19,56,70,38,61,47,37,234,3,37,234,35,2,221,244,13,43,10,22,12,65,61,245,235,51,40,186,43,52,219,30,71,91,38,90,27,65,33,82,251,5,58,208,72,16,9,244,55,53,53,64,4,67,51,247,10,64,64,181,38,54,209,4,9,55,77,85,38,47,48,18,211,254,33,227,37,41,7,245,57,41,28,60,67,34,25,40,5,52,29,179,33,62,199,28,73,53,53,94,58,63,87,39,250,243,35,240,51,31,11,186,68,15,31,66,48,240,53,0,15,252,22,207,249,51,236,6,246,42,59,63,42,67,17,24,17,10,55,227,55,54,240,169,51,45,26,74,43,38,250,248,227,244,63,249,50,10,229,76,72,30,20,51,28,91,86,244,246,58,95,222,75,6,24,241,25,41,38,61,251,232,41,50,2,29,34,247,10,44,196,254,249,84,9,34,66,31,70,65,243,5,40,1,39,41,210,254,68,66,238,10,25,24,246,251,50,38,57,192,15,62,242,242,56,36,2,85,14,56,52,244,187,51,61,240,46,242,15,193,247,232,10,240,68,43,67,245,253,20,246,193,53,51,202,40,67,59,50,80,71,48,34,64,212,253,29,3,59,34,29,3,5,0,42,51,63,47,15,39,237,250,5,200,61,80,203,29,243,21,71,17,236,95,58,5,212,19,73,235,74,66,23,185,54,253,2,239,252,36,26,37,219,234,0,171,19,243,221,24,248,81,39,79,10,48,20,241,226,45,80,194,55,248,219,3,246,39,22,239,42,35,22,253,54,49,63,156,41,59,207,35,36,40,251,80,0,96,16,24,194,63,47,242,17,15,3,247,4,2,244,52,253,30,66,24,235,240,58,245,238,40,4,62,57,29,0,36,32,60,69,251,238,20,74,214,57,25,233,248,58,69,42,20,44,238,82,240,7,64,2,247,18,78,9,8,47,72,37,35,241,118,29,248,11,65,48,187,36,241,12,184,249,53,66,246,57,50,82,213,38,244,28,222,67,47,255,29,41,21,33,83,15,106,84,41,254,60,66,250,69,3,255,197,252,57,248,69,19,235,16,224,31,249,66,202,250,47,226,251,51,44,59,63,25,127,28,50,241,243,95,203,27,248,231,253,8,25,67,42,73,241,37,1,22,42,42,231,13,8,210,24,26,17,3,81,239,52,72,254,223,238,26,9,88,68,32,171,48,238,50,72,21,235,15,52,253,248,12,207,42,53,9,32,28,7,253,53,254,55,43,248,235,14,82,181,15,243,13,245,50,50,57,51,10,67,54,249,22,49,27,162,35,51,250,3,10,55,54,98,59,42,101,12,206,22,52,184,40,15,209,202,20,56,63,242,4,60,70,28,225,35,41,165,234,53,0,14,253,63,52,94,26,115,34,43,200,46,105,188,35,41,19,191,40,35,19,237,64,2,37,25,244,22,74,220,237,52,197,232,26,91,18,88,46,46,55,76,243,28,87,238,60,69,28,203,234,250,54,73,233,19,83,249,29,71,67,209,37,46,174,68,4,84,29,94,49,117,66,64,16,244,73,231,24,242,13,200,68,31,237,17,47,47,0,14,228,9,74,241,10,63,238,50,236,31,69,9,38,33,93,4,2,2,72,215,19,255,240,174,18,23,2,6,59,237,61,222,245,19,20,243,14,27,181,9,28,28,74,9,72,37,34,18,222,53,40,201,45,45,34,186,14,23,54,37,25,24,48,247,253,20,239,179,240,23,201,6,55,48,32,63,64,80,69,54,196,1,59,17,70,12,26,206,251,51,49,28,242,42,70,38,40,242,5,247,64,75,3,51,29,35,246,72,24,62,81,2,246,64,27,191,252,39,30,173,241,41,239,69,64,232,49,45,220,64,53,161,32,249,234,6,255,50,1,81,26,111,34,31,245,19,84,225,69,242,218,197,243,250,229,29,244,7,1,240,244,0,21,177,238,53,187,254,37,59,253,7,250,75,75,53,204,52,96,244,52,30,222,178,65,18,244,32,21,30,0,233,52,70,32,201,6,4,184,229,41,71,29,72,28,81,78,5,237,248,60,3,17,69,245,238,255,18,14,58,33,231,40,226,0,60,31,181,26,250,212,66,10,61,4,67,62,63,74,33,26,55,86,252,11,30,241,191,235,65,9,59,62,9,22,32,17,255,31,228,21,40,245,244,29,60,40,77,1,106,23,41,2,69,32,15,77,44,251,232,1,31,238,41,27,64,24,250,38,38,18,200,248,60,225,22,62,19,249,53,61,106,79,243,213,240,40,241,18,239,214,219,244,14,3,56,237,63,18,231,35,18,13,205,248,2,254,242,56,56,31,18,8,65,37,25,24,251,89,2,72,34,12,191,45,53,60,242,241,5,2,6,252,4,63,245,8,0,187,25,15,12,60,18,24,41,77,47,2,16,47,204,53,61,223,182,26,21,248,249,217,223,228,236,9,232,18,72,14,57,53,59,1,202,238,226,8,210,242,3,44,68,32,94,241,3,94,74,7,240,14,251,254,11,249,25,250,248,249,71,222,34,86,41,21,0,221,199,10,227,1,248,64,45,12,88,239,5,54,40,254,231,25,240,18,238,6,248,26,3,244,40,223,30,67,59,233,255,235,11,253,208,5,231,65,54,7,66,244,16,63,79,228,233,231,10,245,245,231,7,237,235,252,20,9,57,33,54,14,228,220,228,243,239,39,249,75,16,3,115,11,8,42,79,236,3,15,218,217,0,241,252,7,244,241,66,218,30,89,17,226,11,253,212,10,200,246,5,42,47,2,96,215,248,91,33,235,15,243,248,12,16,17,17,27,7,255,77,10,57,72,52,243,224,17,211,0,197,7,18,55,51,30,101,249,235,68,34,241,223,237,253,253,8,237,246,248,18,249,61,220,13,74,72,238,247,251,205,227,247,20,5,76,26,254,99,239,12,93,80,219,222,236,22,228,231,8,15,227,219,233,63,14,1,62,55,236,254,15,251,240,189,2,15,62,48,36,94,254,235,86,35,12,244,240,223,247,5,246,12,2,9,226,52,248,21,51,43,3,215,229,196,222,192,246,235,73,23,17,74,12,12,57,69,240,14,7,11,253,232,5,9,1,252,231,19,1,3,47,28,252,9,219,209,230,239,29,17,45,68,12,122,224,8,72,46,218,2,236,6,10,236,237,244,243,216,247,17,1,34,33,8,243,11,251,202,14,213,250,249,69,36,4,121,0,19,45,25,244,231,254,251,2,248,220,223,0,240,232,82,14,37,54,33,217,206,242,247,12,210,31,232,58,25,240,125,250,246,44,53,232,218,235,216,236,230,216,10,22,2,229,54,230,18,62,25,224,230,2,205,16,206,239,247,78,73,251,72,6,243,86,35,236,12,10,12,232,11,218,23,26,247,252,86,21,10,84,32,243,211,243,204,8,234,246,221,34,44,12,127,15,255,81,84,20,218,235,227,235,251,237,245,235,236,243,83,253,45,40,25,9,209,14,191,238,197,3,237,58,28,20,92,242,251,85,86,4,6,11,227,254,18,255,252,12,18,20,22,253,42,80,54,241,244,8,216,254,255,11,238,53,51,14,80,231,28,94,71,249,255,230,251,244,23,249,246,230,1,239,43,251,36,48,67,227,208,21,253,221,190,255,246,77,30,33,121,237,243,75,79,12,246,253,10,218,229,226,225,234,227,240,28,1,15,92,34,234,222,255,237,249,215,25,19,49,42,11,108,233,238,29,74,224,220,4,5,13,6,6,8,234,14,3,68,253,33,65,33,22,255,255,228,245,238,3,5,14,67,252,61,18,14,36,64,226,10,223,6,232,242,13,229,13,4,239,62,244,42,54,27,13,218,217,192,16,240,23,250,46,63,240,84,255,249,92,77,20,237,19,225,225,222,212,23,9,243,19,75,226,35,85,28,253,207,222,243,241,215,231,5,51,52,27,77,251,243,56,73,238,253,245,248,242,245,3,249,232,226,241,21,0,21,47,50,215,212,3,188,10,216,10,236,105,69,28,127,226,12,91,36,7,238,6,217,243,221,229,230,10,250,0,47,221,38,75,7,230,242,239,241,224,218,24,3,69,75,15,100,234,227,52,56,10,12,27,9,246,243,15,0,0,227,241,77,244,31,90,40,1,221,7,209,244,229,31,237,34,46,24,89,240,231,66,82,19,11,246,20,230,244,8,15,249,232,15,54,226,41,52,43,235,214,20,225,253,240,39,250,77,41,242,57,14,254,59,26,234,219,26,250,21,235,218,229,14,10,246,50,244,21,51,45,24,244,19,244,240,226,33,243,61,38,9,99,244,237,86,55,253,229,27,238,234,19,232,19,251,235,254,30,23,28,68,61,17,6,11,222,249,223,42,1,31,53,19,64,230,244,53,61,244,2,225,249,237,243,225,1,245,251,249,34,255,44,81,77,231,215,0,218,245,236,30,219,81,39,15,122,217,255,92,31,240,225,23,226,230,250,8,226,21,230,242,55,241,22,79,65,239,235,248,254,2,252,41,13,61,29,7,69,242,20,55,39,8,251,230,2,247,245,249,17,251,239,251,61,23,41,42,53,219,251,233,212,228,241,251,239,15,40,254,78,3,18,96,82,0,249,25,18,15,15,76,11,231,70,25,152,9,85,11,239,4,58,60,47,21,67,87,6,213,77,19,186,5,13,18,151,42,38,238,2,60,57,16,249,211,254,44,214,40,88,222,253,72,93,253,46,52,90,88,229,207,42,108,192,71,230,249,167,235,19,1,253,30,42,12,0,1,15,57,163,227,12,181,21,241,65,11,29,33,74,2,32,221,34,32,194,21,19,243,164,36,242,72,23,55,0,73,6,7,245,252,174,238,74,226,225,245,50,233,64,243,57,20,22,21,5,31,13,63,22,248,219,251,41,27,248,77,74,78,48,230,244,26,224,230,248,15,228,20,38,20,240,26,67,91,17,214,70,22,215,35,24,207,233,2,244,9,244,52,58,21,19,64,9,72,209,33,12,189,58,35,88,8,93,52,65,86,15,250,28,86,225,36,11,189,168,4,72,242,56,59,243,248,14,3,246,237,158,49,63,225,247,245,86,25,19,230,71,67,79,163,14,114,185,47,37,210,211,7,37,223,238,64,23,88,35,62,81,242,213,31,238,186,65,34,60,11,35,23,99,19,243,214,2,62,160,10,24,3,193,62,236,19,47,1,28,36,51,231,235,252,236,33,7,207,6,77,105,4,64,9,30,6,37,233,48,44,227,246,39,253,216,4,8,41,47,53,242,245,59,43,240,9,218,66,58,173,14,17,55,252,96,41,82,61,79,221,62,38,208,253,243,252,168,68,36,51,43,49,13,72,6,1,243,39,187,28,21,199,251,42,42,82,42,234,76,8,74,191,56,127,199,40,40,17,177,62,247,17,11,69,252,81,219,11,77,235,161,1,30,228,12,235,26,12,21,51,88,28,86,199,37,35,196,246,228,211,180,19,253,74,29,42,55,38,238,22,231,71,166,72,37,193,57,20,64,78,70,80,107,74,45,234,11,44,181,91,65,216,215,75,83,36,61,8,42,45,218,44,255,43,229,26,249,240,31,18,0,244,4,29,95,5,49,28,65,39,164,13,29,241,239,53,3,34,21,235,7,23,44,246,18,234,208,233,82,239,63,57,42,24,30,41,78,25,78,211,1,51,163,2,61,227,254,5,34,41,50,239,19,84,229,212,74,68,243,66,40,198,9,55,22,62,64,44,70,77,65,20,69,24,188,246,31,198,212,68,223,233,21,238,22,250,218,12,23,55,198,237,79,235,16,37,65,3,248,229,10,17,70,222,240,100,252,68,42,221,197,44,14,35,15,37,255,69,16,57,26,66,221,61,30,225,36,74,31,71,32,252,30,87,17,27,56,72,175,66,43,219,163,226,55,1,231,244,67,52,250,243,37,240,225,230,41,184,248,51,78,70,40,52,33,89,24,252,22,93,8,14,243,190,194,247,2,224,29,71,30,84,26,248,30,35,164,12,38,13,0,240,58,20,39,68,101,19,255,33,255,12,226,74,27,15,6,71,246,53,16,13,14,31,217,255,26,48,176,246,17,213,46,3,250,247,68,0,114,95,31,192,40,102,188,79,26,203,232,240,16,253,58,18,10,35,231,251,3,47,150,1,47,220,238,254,67,19,43,252,40,99,41,178,76,66,214,5,64,194,192,14,39,242,231,60,11,61,241,52,31,74,222,49,81,202,253,250,36,34,77,36,106,40,76,200,69,101,169,54,52,217,239,27,16,29,55,14,232,25,30,251,72,13,245,60,58,204,235,23,42,75,19,232,67,2,49,1,245,52,190,3,11,229,243,240,235,57,42,47,61,41,214,211,20,54,228,238,67,8,225,5,233,242,19,66,85,246,63,225,2,15,197,236,17,202,213,5,229,29,52,41,69,6,1,5,252,38,203,21,54,206,2,20,238,67,93,232,15,2,237,212,227,44,21,16,74,238,226,247,24,65,254,20,51,236,43,14,51,242,154,47,52,204,24,255,16,68,243,61,105,51,27,196,244,94,211,61,34,238,250,234,230,232,227,249,251,53,246,61,78,63,163,244,69,221,239,79,9,236,29,235,96,53,241,227,28,48,183,44,241,225,203,74,33,240,63,239,30,27,55,4,6,42,167,30,66,217,3,9,34,60,244,21,30,23,14,11,69,88,248,27,21,238,156,37,58,22,78,240,253,57,231,59,72,7,249,228,10,229,244,230,88,45,17,15,14,36,242,235,50,92,190,253,24,13,3,6,15,233,43,141,14,59,0,207,232,229,26,86,87,36,244,36,210,40,204,27,254,160,71,51,18,34,251,35,39,18,197,6,12,204,209,166,168,63,47,53,178,41,231,163,67,66,38,233,155,73,163,84,57,71,169,255,164,224,88,87,7,17,214,16,6,167,215,174,157,201,67,61,196,242,211,1,220,24,45,244,136,187,160,146,209,25,213,86,17,220,70,213,17,217,79,67,182,234,142,149,146,58,48,31,48,217,221,216,18,33,189,252,35,179,211,233,229,148,242,21,254,56,227,26,14,3,54,36,159,157,213,185,20,232,202,85,217,175,228,13,33,147,38,192,210,60,46,68,205,211,249,208,178,27,95,0,204,255,249,182,28,56,168,43,54,157,168,52,241,41,253,130,144,234,73,193,53,151,16,143,72,28,157,87,229,240,218,25,72,196,219,208,219,83,135,48,209,5,59,141,191,63,40,185,217,246,207,208,149,133,245,183,244,134,89,8,9,87,34,62,162,39,167,215,54,189,253,21,50,150,189,90,38,54,178,172,250,229,8,220,75,9,238,66,221,142,229,169,210,208,107,33,32,251,191,79,133,208,34,38,1,13,214,33,87,49,43,76,212,19,169,29,69,217,62,223,64,59,25,143,213,150,249,66,210,189,40,84,200,80,184,218,229,206,78,237,228,205,156,12,243,209,76,6,83,146,150,217,84,72,73,49,182,92,2,56,149,89,86,30,36,48,37,245,223,17,180,13,234,220,197,212,143,37,65,242,143,240,21,72,255,187,203,4,230,204,218,190,191,185,11,198,24,158,52,62,72,1,176,220,140,203,32,178,141,90,168,4,42,240,218,27,245,140,210,190,135,229,74,167,18,247,198,43,3,85,90,211,246,175,206,35,34,211,70,152,62,235,213,34,150,169,67,1,227,55,64,158,157,60,14,228,145,167,33,19,51,173,70,4,246,20,65,10,222,233,11,83,46,26,76,158,148,52,51,166,189,73,189,164,139,79,165,63,82,80,79,68,130,229,183,0,150,134,14,68,207,224,32,167,47,143,229,134,200,184,238,7,205,87,188,173,229,85,61,14,202,229,68,49,238,78,14,192,77,213,91,67,252,51,71,18,15,194,2,160,69,142,57,36,150,30,141,193,138,0,30,15,211,254,46,191,246,244,66,169,72,215,198,211,213,15,250,1,187,22,83,137,57,9,150,15,166,247,54,240,84,6,86,160,84,32,205,185,66,172,61,137,12,53,167,58,148,45,209,56,40,174,241,203,153,228,171,91,201,51,235,86,60,238,217,68,62,250,0,250,1,81,168,253,32,211,228,139,0,23,190,142,208,7,62,67,224,186,219,212,27,9,193,73,175,167,146,73,56,58,156,30,174,143,215,245,248,157,33,30,177,185,49,132,52,195,14,85,46,162,33,13,245,221,63,166,54,50,89,154,204,12,207,255,165,163,166,142,50,249,213,253,209,254,62,43,27,53,46,149,200,231,64,48,5,80,87,48,240,232,146,189,15,146,154,207,220,72,38,209,134,138,172,20,131,210,38,84,18,31,165,220,159,82,151,240,15,148,12,38,86,219,20,1,49,26,65,12,160,134,73,146,226,53,243,41,182,78,26,199,70,197,141,82,18,11,34,58,135,26,14,170,166,137,232,9,77,74,28,2,76,65,225,197,164,244,75,33,48,185,178,80,17,254,135,243,188,78,81,149,80,184,54,48,250,9,49,152,9,188,189,14,191,42,239,205,129,234,42,191,145,84,81,56,239,239,38,14,221,81,47,68,168,45,237,19,24,173,91,89,191,184,73,230,179,249,62,33,59,6,153,14,32,238,208,30,63,180,241,62,156,230,228,205,15,175,151,28,189,177,236,48,25,16,254,247,246,214,235,71,221,89,62,242,240,148,97,0,36,182,254,131,78,21,6,203,178,46,255,145,17,73,73,173,50,162,225,245,66,75,28,69,11,14,49,67,186,55,15,168,22,13,178,242,65,168,15,181,154,220,54,23,51,199,55,27,176,234,159,214,162,135,239,0,194,33,239,171,45,32,86,211,30,51,238,32,22,78,251,75,15,11,57,157,199,183,223,138,76,144,248,24,156,89,65,57,88,221,12,59,24,84,86,197,43,194,225,218,43,205,68,51,67,134,181,175,26,57,87,247,203,184,16,200,59,23,147,181,51,178,11,224,185,159,170,216,192,254,238,199,217,131,246,223,218,198,238,232,73,21,253,255,57,2,196,239,224,190,41,166,191,11,245,225,74,93,252,228,165,252,238,239,217,51,196,17,95,211,162,203,29,60,88,174,252,78,64,222,159,177,167,53,212,211,69,237,180,62,81,237,66,214,183,59,0,140,50,19,170,228,70,189,251,220,202,160,211,198,148,71,250,162,237,163,237,195,4,72,161,34,88,20,181,4,153,136,79,238,193,187,167,177,195,42,194,78,50,161,142,41,172,49,64,130,196,8,64,150,170,227,74,2,224,253,132,196,227,158,91,247,25,214,12,161,165,84,169,62,187,136,86,93,165,228,34,251,31,12,208,38,43,135,166,37,168,6,205,86,21,144,8,87,241,29,157,242,15,49,211,131,70,163,134,67,223,79,57,153,74,70,31,80,207,158,140,253,7,175,144,50,193,90,139,155,248,28,223,190,231,241,232,138,181,233,49,207,246,243,163,202,156,224,52,44,80,142,95,61,227,221,241,223,198,171,41,135,19,181,86,176,48,166,168,98,10,45,235,80,19,40,44,79,231,194,203,225,35,185,231,27,21,76,92,198,245,202,136,151,16,143,39,211,199,193,0,43,16,143,236,170,94,240,69,165,151,60,160,210,240,73,85,193,25,226,133,193,149,176,85,157,178,56,23,210,129,93,209,90,43,18,154,165,249,143,252,186,233,254,159,218,152,78,92,59,177,86,53,155,26,164,209,36,38,7,33,209,3,22,247,1,189,28,176,97,180,49,62,50,65,201,95,55,69,155,45,207,224,222,51,200,42,251,11,168,164,43,158,196,63,204,34,245,220,19,4,145,48,138,12,65,146,152,254,212,38,68,28,66,224,198,175,136,249,0,160,130,201,82,144,132,164,13,12,239,170,77,153,62,208,245,223,186,29,56,208,9,237,5,228,208,29,152,22,216,202,210,70,159,19,58,232,38,22,241,217,96,249,36,239,77,31,78,151,1,192,12,78,90,153,188,244,199,220,46,131,216,152,210,8,2,153,169,190,59,231,203,50,45,84,38,90,64,226,62,53,211,36,192,71,74,161,81,23,188,197,64,27,58,216,16,246,199,72,239,184,27,46,102,28,144,201,175,188,33,238,154,174,242,45,73,51,34,98,134,93,252,74,231,79,21,163,4,55,82,16,209,32,90,52,13,187,61,198,15,90,153,185,235,246,202,30,61,38,228,174,246,129,90,194,147,147,173,174,171,61,16,81,77,39,185,248,23,73,143,24,53,211,149,49,23,220,62,43,187,157,214,83,205,9,64,33,184,244,70,138,160,180,79,169,2,21,50,131,242,136,45,245,94,42,180,82,84,56,72,238,137,224,223,50,253,206,176,237,14,64,87,248,229,58,44,63,2,76,175,138,150,230,206,66,250,245,155,158,60,150,66,227,219,68,47,211,140,171,148,146,36,207,234,202,182,10,214,180,191,249,167,83,161,11,145,145,31,140,212,229,208,1,31,14,42,165,255,134,3,191,174,57,63,137,16,255,82,59,44,69,93,177,164,71,24,232,51,183,210,243,152,8,30,213,150,77,50,139,48,222,66,167,164,86,154,222,240,24,200,238,31,195,167,92,12,196,68,91,49,36,52,238,139,16,182,54,55,244,138,0,6,243,233,228,244,34,165,131,252,222,188,19,150,235,134,200,143,224,148,19,239,228,218,143,132,82,74,242,245,254,195,138,193,93,154,164,16,233,83,211,15,222,29,141,206,19,245,53,147,139,255,36,164,110,149,250,64,158,235,10,214,202,82,54,55,138,26,166,206,210,213,173,179,235,27,222,78,77,39,182,225,152,15,147,249,226,35,57,47,100,247,80,180,0,82,159,228,68,62,245,219,69,225,137,239,92,199,50,41,239,69,49,196,25,248,94,22,179,18,89,59,2,165,44,58,93,91,187,218,183,13,160,142,219,75,151,64,7,19,192,22,248,60,219,230,65,5,40,49,76,225,45,252,108,196,54,218,133,207,255,134,18,173,140,220,19,10,68,252,231,74,255,41,27,31,142,208,162,7,224,242,101,75,154,15,198,4,165,66,229,94,38,153,168,52,53,53,170,251,63,197,194,38,1,33,245,237,71,48,7,184,138,92,27,228,70,193,74,65,68,92,238,156,48,186,87,137,177,15,1,172,241,155,136,212,250,158,69,177,79,12,13,74,160,147,92,4,194,147,176,209,156,96,170,214,166,96,18,4,78,162,74,22,28,161,140,201,197,180,52,153,141,130,97,156,163,46,50,60,2,96,66,138,147,5,229,64,18,154,252,241,27,245,247,19,199,158,90,186,61,46,237,16,51,56,4,208,73,149,189,249,200,139,22,211,253,91,132,51,178,169,238,222,80,24,224,85,93,228,182,95,219,33,181,244,239,151,48,36,86,41,207,11,238,73,45,32,77,245,36,38,45,60,252,21,95,141,227,191,187,227,60,233,227,186,93,96,165,224,187,175,11,184,150,189,25,187,243,211,68,215,203,159,14,98,70,180,96,135,156,34,63,160,138,191,146,255,42,233,94,79,61,24,188,44,6,19,229,100,182,224,156,26,75,205,175,138,185,43,34,159,155,13,37,25,71,214,208,66,137,237,77,221,32,92,14,67,172,51,79,201,109,23,16,56,217,240,61,16,71,20,16,10,249,239,36,187,181,66,214,54,13,176,88,28,204,77,103,83,97,176,230,219,64,144,211,86,196,170,39,33,243,49,192,86,240,164,85,2,36,129,15,199,174,145,165,253,161,12,133,253,163,133,58,64,231,230,207,58,243,34,225,40,157,136,71,25,218,187,24,252,36,232,160,78,172,98,18,211,146,55,154,225,86,99,176,79,84,245,213,82,39,73,184,204,197,25,251,44,216,198,224,133,140,3,231,170,59,226,93,179,19,36,189,148,194,220,253,230,233,204,200,182,36,154,64,68,62,36,140,189,195,176,70,34,94,137,11,247,85,189,241,209,192,172,115,162,97,74,247,253,90,240,168,72,151,96,225,252,187,95,138,222,4,160,49,200,210,146,243,205,244,199,166,188,26,141,96,179,206,28,253,199,104,147,236,216,210,209,191,37,253,207,49,174,106,73,149,70,57,20,146,199,187,200,178,22,50,26,20,73,83,237,15,28,60,176,152,34,0,229,97,33,88,143,158,1,158,22,177,238,77,83,174,202,53,214,6,39,199,44,223,36,253,253,197,188,17,156,156,88,12,196,233,188,228,91,53,62,16,79,98,108,0,51,223,31,69,170,143,37,2,169,23,197,203,239,159,179,156,159,25,23,216,187,237,88,254,102,91,93,76,86,230,241,251,75,197,153,139,137,97,189,148,47,60,12,20,185,195,170,186,244,50,247,179,95,14,35,85,138,217,92,59,225,50,166,10,241,142,236,219,219,0,3,153,10,157,227,179,47,241,177,98,31,194,213,19,153,248,171,59,72,11,225,49,69,29,17,198,4,43,232,173,50,199,211,8,114,179,14,209,32,89,247,66,217,65,254,11,224,61,241,189,224,31,234,9,69,141,16,187,9,138,155,87,52,152,194,38,59,40,200,203,226,211,207,96,26,3,55,230,243,167,147,21,139,209,180,165,34,173,25,201,137,253,233,148,168,166,142,234,227,30,180,25,70,49,216,253,211,95,202,5,82,81,166,137,71,223,178,25,254,247,57,175,0,53,97,42,86,168,218,238,165,55,54,45,42,20,182,246,5,134,85,145,167,217,170,107,63,219,62,207,148,167,209,145,62,248,4,106,65,152,182,162,42,175,226,201,209,3,209,215,27,244,26,78,22,19,34,15,45,206,86,243,210,230,49,15,41,93,232,203,63,19,30,26,200,160,25,246,142,200,30,192,100,85,21,36,96,35,3,97,147,145,95,57,215,6,99,73,210,182,207,216,92,190,250,162,248,55,44,161,175,149,214,61,136,189,74,244,1,59,59,164,93,202,247,154,78,186,59,177,149,80,143,248,141,228,25,246,34,190,81,83,92,192,47,0,51,140,166,17,218,63,153,55,245,207,210,93,181,47,87,10,162,132,7,30,3,212,85,197,166,30,176,53,183,246,241,170,216,90,65,11,214,32,189,16,26,251,145,39,88,225,113,221,140,178,239,177,20,139,184,0,251,33,162,158,159,212,25,26,141,158,227,87,177,197,97,152,139,233,163,194,28,142,5,166,243,137,64,239,90,229,222,153,179,13,149,235,87,134,190,147,65,134,246,25,146,233,81,71,95,90,232,85,244,16,231,253,7,1,59,16,97,35,172,61,231,231,155,245,73,11,233,52,148,100,213,180,4,36,83,187,57,91,59,51,73,190,60,10,46,150,144,210,146,220,190,83,5,178,99,239,99,102,36,10,42,168,40,227,248,220,133,146,51,95,195,31,189,62,29,47,230,140,69,94,185,231,131,239,26,29,227,71,198,82,69,62,226,138,41,3,80,49,193,243,79,53,86,162,130,39,77,46,216,235,144,24,195,76,12,164,9,83,131,210,15,192,24,28,223,7,25,196,31,253,251,237,51,195,237,154,87,42,133,57,223,180,84,75,235,36,12,57,150,228,160,0,77,217,95,212,232,56,181,31,189,2,44,250,98,99,241,104,54,203,150,208,104,3,241,226,98,234,198,205,67,253,186,180,19,151,75,150,221,77,172,93,226,7,161,244,222,153,219,34,228,232,52,89,180,224,251,49,59,95,229,153,14,177,57,40,247,224,252,185,68,163,176,32,19,154,53,247,19,229,11,72,134,231,30,2,102,92,194,228,64,7,4,181,1,67,43,231,14,76,177,19,162,28,61,67,223,31,102,96,178,187,194,252,136,43,54,20,228,131,28,73,220,71,34,228,104,144,70,88,67,30,107,152,64,201,248,131,255,241,7,152,41,201,136,187,39,169,220,181,171,70,195,192,140,213,101,44,178,179,176,70,42,66,232,93,198,186,159,255,30,84,169,69,101,53,239,225,102,22,55,150,182,20,138,234,50,136,138,231,7,56,221,211,208,200,25,114,226,7,41,97,25,243,52,86,50,169,193,150,154,11,77,72,90,195,142,73,206,135,243,46,31,2,68,250,156,87,157,224,76,153,154,63,83,30,29,21,192,60,90,250,233,222,39,159,25,248,78,188,28,245,97,5,215,232,150,196,49,166,3,66,90,64,133,133,193,40,201,49,16,145,193,27,102,13,28,130,131,178,17,177,135,69,6,76,57,181,245,250,176,169,146,254,7,239,64,162,20,9,146,159,205,153,169,20,251,60,29,153,83,8,152,240,210,140,170,19,56,244,60,168,98,173,184,214,168,218,250,168,98,5,39,212,165,12,52,234,249,151,251,49,50,209,10,221,49,103,153,92,150,213,5,191,142,204,79,208,23,165,3,69,228,91,210,23,141,165,190,173,179,140,166,32,161,38,68,136,81,199,60,212,229,7,185,37,223,52,45,29,134,55,11,32,167,202,152,186,211,237,102,23,148,7,38,61,198,209,93,72,222,247,208,37,102,196,29,188,231,42,64,220,222,242,192,241,59,160,139,225,250,18,37,22,62,180,198,250,26,101,5,246,137,199,163,191,202,190,243,216,176,212,175,37,184,99,181,41,242,172,38,226,179,75,188,83,62,159,189,152,35,210,35,95,165,96,234,13,195,134,233,193,99,214,29,82,165,229,44,230,9,165,199,242,56,10,167,1,129,42,217,79,173,55,23,10,77,253,211,33,44,26,239,86,130,240,230,203,226,230,201,245,99,12,67,45,237,34,91,50,59,0,167,88,95,78,248,43,149,92,164,1,5,55,142,104,82,49,86,147,155,24,156,227,1,249,235,9,213,247,216,69,87,134,133,24,212,3,101,20,228,26,149,216,97,188,204,255,230,13,144,112,210,248,202,206,213,72,225,191,78,15,19,57,59,39,105,43,186,255,227,207,45,205,253,64,170,226,38,245,40,204,236,225,237,228,32,219,30,177,221,113,54,244,132,153,208,88,57,43,154,138,82,84,190,57,43,50,230,83,190,73,130,23,209,30,168,3,15,82,23,59,185,230,160,27,198,15,174,196,43,242,225,51,139,97,72,69,192,239,239,227,62,77,181,17,178,242,231,150,179,252,148,158,46,62,246,11,182,1,43,46,142,182,5,166,11,71,47,193,191,158,38,16,40,102,163,8,192,151,176,86,200,146,95,20,139,67,171,151,222,150,4,206,31,31,0,20,27,181,81,98,133,54,134,44,68,90,86,72,42,30,14,140,188,79,184,2,10,194,96,173,49,39,72,131,235,187,99,129,61,2,149,198,16,79,242,48,60,150,21,139,206,113,242,12,137,151,86,39,94,234,69,102,1,28,169,241,47,59,237,64,188,44,176,234,85,227,173,204,15,169,160,158,237,151,167,185,50,1,236,205,215,162,181,4,18,189,71,151,82,75,193,38,173,51,47,212,58,189,135,235,98,196,169,199,207,69,174,78,75,15,73,228,242,252,210,34,1,232,43,10,234,92,69,76,39,19,238,94,41,89,181,62,29,205,92,61,19,179,56,7,62,57,31,73,57,7,218,228,84,247,59,33,174,9,41,61,233,245,7,95,90,55,16,86,56,253,78,41,1,177,72,242,72,66,230,10,67,251,6,42,68,186,70,16,191,73,19,249,55,24,24,77,253,67,30,244,111,205,230,20,212,173,11,240,77,252,52,9,49,254,59,9,254,198,232,83,231,71,61,39,230,90,238,254,248,31,56,249,39,241,84,246,215,3,5,21,250,82,226,231,4,33,241,238,229,200,48,254,220,252,246,3,38,70,17,13,45,24,25,12,90,253,26,56,43,162,22,58,73,41,1,29,237,34,205,241,12,185,71,48,187,254,27,110,45,34,249,98,101,251,196,72,20,249,5,43,208,172,54,73,26,52,65,252,30,49,28,6,253,161,31,35,2,43,248,77,223,39,71,10,98,48,176,37,115,210,62,6,189,209,239,19,77,43,4,1,14,26,237,28,238,146,227,45,208,64,87,9,26,85,25,116,87,70,205,55,122,172,46,45,44,226,45,46,22,22,239,62,3,248,243,45,8,145,23,20,0,237,56,76,246,85,233,29,70,17,198,87,99,185,18,53,212,209,74,15,26,52,14,76,86,44,232,58,227,205,81,60,171,31,54,86,238,40,37,23,81,54,240,230,104,5,2,45,27,240,247,250,22,31,31,61,60,253,24,29,74,203,68,73,27,254,32,59,250,16,250,41,0,232,40,5,80,199,78,232,22,194,68,234,249,229,31,11,91,1,67,24,73,254,82,22,253,250,45,100,78,14,7,127,94,30,156,84,34,249,70,6,196,244,67,82,41,30,76,65,75,28,9,70,19,167,15,24,252,69,249,96,6,37,35,23,80,67,26,52,78,234,29,55,218,185,8,246,71,24,67,17,27,210,221,236,54,140,252,33,223,39,234,6,56,110,72,12,103,243,206,29,85,251,14,45,215,4,251,255,42,36,224,67,66,204,252,35,72,206,250,24,206,85,36,76,3,124,4,96,107,70,37,18,86,204,237,42,199,160,245,245,59,76,243,236,48,212,23,248,3,180,69,10,11,25,238,83,242,38,3,8,95,84,175,18,28,14,250,40,40,213,53,57,218,223,227,24,225,29,17,255,244,209,223,40,188,48,45,63,82,5,12,33,58,16,241,236,51,251,230,222,240,156,22,6,239,45,17,52,88,9,239,78,25,244,223,69,182,92,49,96,59,112,83,90,13,230,27,102,79,227,72,32,30,187,1,70,19,7,20,37,240,246,52,70,53,255,37,46,26,25,38,19,46,42,87,81,74,253,227,53,50,228,16,21,196,197,74,80,37,247,4,75,55,226,13,55,249,178,240,20,204,92,66,47,25,56,51,58,255,63,209,254,126,44,86,22,250,11,56,232,12,245,253,28,55,232,43,16,33,0,78,84,14,230,237,23,85,29,244,87,21,232,11,234,91,37,91,9,253,2,246,33,6,250,59,69,67,15,55,51,25,231,24,11,169,6,70,7,238,105,6,97,41,19,29,37,68,217,92,70,188,213,79,241,249,54,68,73,91,45,209,82,7,135,48,81,169,238,16,3,33,21,54,46,9,46,252,254,27,168,237,245,10,242,64,248,37,245,16,36,30,209,242,41,29,192,61,254,255,230,70,68,244,58,234,71,68,8,251,33,42,10,19,235,18,222,10,14,66,39,49,217,16,23,15,249,19,224,249,59,7,74,46,238,64,76,80,62,49,227,193,90,45,179,227,228,236,178,72,230,225,5,250,236,80,36,248,72,65,180,72,42,1,80,244,13,236,244,64,67,43,66,208,67,94,214,64,2,34,252,72,25,59,229,10,234,58,3,5,34,252,176,240,28,250,246,46,65,28,76,2,55,33,78,14,64,73,252,7,68,48,252,30,7,31,65,5,15,60,32,242,41,254,211,21,94,165,39,46,96,237,96,16,0,22,230,15,43,119,200,235,15,201,250,72,252,50,58,62,226,237,205,244,25,7,244,229,17,207,17,254,101,3,30,74,82,74,5,220,15,86,8,82,249,248,165,74,61,2,69,234,234,249,208,226,238,5,153,232,91,237,19,40,4,62,15,26,52,27,7,53,244,103,26,24,65,247,234,235,55,220,229,85,249,96,240,69,250,46,162,210,234,93,145,25,212,59,195,207,21,108,142,220,242,4,30,39,202,65,110,225,46,145,196,102,185,79,172,78,168,43,5,28,69,238,60,14,75,78,163,38,44,145,55,241,149,216,55,81,16,153,244,211,3,249,46,238,196,152,92,5,247,138,53,75,179,245,184,62,35,160,9,7,93,12,44,234,200,15,208,17,190,154,55,156,251,197,224,0,182,179,11,191,233,155,25,151,67,74,206,183,79,96,179,246,216,155,74,203,247,48,150,222,38,8,49,70,33,186,68,51,26,33,238,160,45,197,3,229,63,5,71,251,6,28,59,192,35,224,45,66,167,234,241,200,200,74,50,10,219,183,157,150,97,183,19,50,95,250,186,106,90,93,239,151,39,111,53,1,85,215,244,220,255,190,107,163,10,56,3,56,249,49,56,248,63,172,91,150,93,194,183,235,11,148,33,13,135,85,212,151,86,238,56,254,233,228,111,66,157,71,207,50,77,148,162,88,97,234,71,16,63,162,77,29,239,236,245,209,29,245,194,240,78,52,92,133,49,16,106,174,232,148,236,241,195,1,115,10,244,58,169,249,224,162,21,4,193,5,95,23,4,172,77,203,170,9,241,232,1,67,241,185,232,24,162,95,95,103,226,216,84,165,221,167,1,79,86,41,23,211,195,159,176,177,229,216,225,52,174,27,21,212,56,34,189,224,44,28,152,67,163,179,19,59,213,4,144,245,70,220,228,20,31,169,91,33,202,89,190,176,182,222,159,27,28,194,165,93,232,224,151,166,187,234,97,6,187,63,200,178,129,98,88,205,252,57,21,30,57,219,59,70,32,1,29,110,225,165,10,195,230,19,177,212,177,155,81,56,176,84,187,94,179,65,209,238,177,86,80,40,149,143,86,201,90,194,188,175,7,189,177,172,154,189,88,68,233,176,142,88,80,230,231,30,78,66,215,81,70,29,180,207,205,254,44,216,48,35,211,102,224,7,205,241,104,204,58,160,157,69,11,92,145,179,83,231,3,2,54,21,103,45,188,250,189,184,245,221,108,28,199,0,240,98,8,218,102,157,234,17,161,37,22,228,31,155,55,48,23,40,180,187,21,10,209,143,44,174,181,32,11,203,209,99,174,59,155,154,8,205,99,196,22,82,97,35,230,235,157,157,180,74,5,156,88,246,254,39,180,153,166,200,151,197,36,167,68,29,171,44,56,197,36,228,137,79,24,161,251,22,174,227,223,30,215,63,182,194,82,147,16,138,153,103,39,158,40,239,228,224,83,224,162,16,168,157,17,191,36,197,38,80,90,160,74,65,87,220,209,209,179,28,146,178,188,101,189,37,234,249,88,194,159,140,152,177,223,41,11,180,139,251,64,71,206,46,172,16,161,182,59,9,138,138,173,163,193,137,48,152,15,222,231,200,91,151,213,211,4,136,214,228,77,32,211,201,70,37,184,189,95,160,8,91,137,58,92,84,234,143,231,164,45,232,108,231,201,196,236,164,43,54,13,168,102,177,225,198,193,78,24,64,149,20,45,83,171,231,211,249,52,100,174,14,96,41,93,4,49,181,210,91,187,26,143,202,31,234,0,99,178,162,237,47,7,243,4,100,167,230,135,6,157,240,213,54,54,89,48,68,167,183,72,9,151,249,144,184,154,153,48,215,52,137,153,138,137,52,147,55,70,88,18,58,51,33,208,45,94,38,150,153,29,84,78,35,45,216,64,66,29,195,81,184,232,45,86,71,221,69,97,255,183,210,45,210,154,210,174,54,34,12,59,248,15,10,12,31,213,85,219,229,165,16,66,47,16,23,23,222,246,141,52,52,197,159,171,223,254,165,55,221,191,26,16,2,150,182,82,14,11,37,226,233,80,17,58,104,153,87,84,2,162,9,32,235,15,230,178,226,58,203,80,5,203,176,174,32,2,80,169,140,37,85,190,79,145,160,70,64,68,144,22,16,192,45,171,1,173,58,203,72,8,251,21,182,243,69,46,80,247,205,23,230,138,199,184,28,134,215,96,64,154,150,164,94,96,220,190,161,5,24,25,94,4,29,24,60,207,8,210,86,253,198,173,78,228,227,242,233,27,216,248,40,193,255,140,53,236,90,197,233,164,169,159,145,48,243,206,158,41,155,61,95,9,68,167,151,71,152,253,164,14,89,83,141,84,166,77,236,185,5,150,204,147,56,61,65,153,48,82,64,253,200,53,47,193,41,165,219,148,135,210,14,76,253,185,91,216,90,109,37,40,150,28,157,209,159,74,200,182,165,41,237,212,33,48,61,181,156,4,197,17,139,78,141,16,179,9,90,48,174,29,83,11,52,145,141,11,52,246,16,181,224,136,47,37,150,84,20,36,68,215,239,221,15,52,238,53,92,134,73,28,93,208,92,71,21,207,33,134,157,155,238,146,178,19,161,200,48,60,176,248,21,194,200,81,6,179,182,229,226,201,198,20,30,223,138,79,78,30,168,12,154,253,219,74,81,202,192,14,252,39,7,14,162,187,205,69,223,62,87,22,54,100,244,157,173,183,41,12,172,209,232,211,171,188,233,81,205,233,38,226,61,172,78,56,232,244,134,172,23,154,224,197,93,224,245,85,199,88,6,51,64,168,146,26,78,141,224,31,1,172,160,58,73,148,0,20,48,175,92,146,57,9,136,31,180,15,147,180,12,13,165,98,246,58,132,33,18,202,185,82,200,2,88,189,57,84,55,196,72,232,228,80,180,135,154,251,8,51,148,56,191,236,94,54,29,66,196,153,184,208,194,175,244,29,208,182,238,233,42,18,180,102,213,52,243,234,61,251,250,166,240,11,7,238,87,255,236,224,209,89,242,183,169,80,190,242,160,41,16,188,191,178,70,38,201,61,49,239,43,62,207,155,152,210,189,170,151,48,168,46,160,172,190,88,192,187,170,147,247,13,34,216,224,139,54,225,76,52,240,26,238,183,92,86,174,13,42,238,247,133,76,62,64,234,247,255,235,27,50,181,183,66,17,162,80,1,207,194,56,238,58,208,229,239,207,224,144,139,142,5,71,237,59,217,24,68,83,90,74,244,189,56,0,93,61,173,185,150,17,18,141,193,96,91,156,48,5,46,22,1,26,3,144,33,5,17,55,96,198,154,199,225,94,39,15,49,63,161,42,227,208,52,55,28,43,239,182,251,65,223,14,190,2,171,142,197,41,45,61,60,146,38,44,77,40,88,61,20,16,238,178,25,153,158,190,73,162,184,157,230,254,12,48,91,91,249,39,8,160,13,164,28,20,29,81,144,15,47,66,76,255,56,136,39,213,54,52,77,2,50,87,33,71,228,187,73,234,211,156,59,180,229,73,34,177,51,219,192,229,3,98,234,59,72,76,164,91,199,205,80,33,30,146,93,29,151,170,86,192,143,3,223,170,92,38,81,139,58,188,6,163,28,6,76,231,254,246,32,205,210,193,211,238,50,147,61,154,64,17,23,237,233,77,94,153,175,173,217,219,154,179,92,65,131,241,17,179,10,14,197,35,84,211,198,213,211,94,79,62,229,97,198,44,249,253,179,31,41,222,15,254,240,230,8,137,17,19,73,58,48,214,67,91,41,179,64,53,24,197,51,214,75,215,219,73,1,169,27,249,203,210,255,217,243,243,187,228,211,148,194,140,158,215,223,79,161,65,236,15,86,13,136,227,244,231,27,233,162,31,164,218,205,173,20,22,101,3,194,46,86,33,105,145,237,94,72,23,192,72,143,34,44,219,6,135,35,196,20,134,88,253,175,215,191,53,32,144,37,13,144,20,75,177,137,25,241,230,15,146,202,170,200,44,78,204,186,146,223,65,249,182,192,192,242,95,169,26,47,183,231,245,69,43,183,90,177,193,161,41,88,218,165,154,250,216,65,207,1,196,51,35,179,241,8,210,134,248,246,145,36,215,249,165,183,140,74,29,223,182,199,23,200,174,230,95,241,81,72,158,252,239,86,38,17,26,187,158,230,220,177,211,1,181,232,59,168,253,153,70,93,22,157,169,176,238,33,210,219,154,201,187,198,188,183,60,94,46,80,241,29,160,79,162,196,55,37,171,217,134,11,253,248,222,74,74,43,170,253,209,164,244,48,233,89,68,190,168,59,165,214,11,28,180,244,6,174,176,236,198,255,12,201,47,241,53,243,210,145,147,42,85,241,1,211,42,131,131,239,233,16,174,35,218,30,154,12,140,4,9,96,144,171,168,148,232,198,35,105,176,79,227,241,145,207,7,137,152,209,11,129,97,218,253,156,237,243,249,65,249,41,153,85,86,250,197,94,238,166,236,237,160,176,208,21,93,198,1,80,181,15,138,228,72,8,50,93,0,176,208,43,186,149,4,156,196,24,211,35,155,217,151,208,4,198,0,26,151,60,20,67,50,4,5,217,252,163,250,166,40,227,223,98,153,24,53,232,26,213,158,158,181,57,210,52,20,163,90,81,197,41,139,72,139,6,201,247,229,57,173,24,214,146,22,183,67,85,139,240,204,222,174,0,139,17,132,218,134,46,185,158,77,145,166,70,165,142,215,199,140,241,215,247,32,248,74,31,165,91,13,201,192,148,229,92,68,157,251,192,19,145,238,154,32,173,86,34,170,252,30,54,41,74,174,244,183,163,226,136,61,152,19,75,32,218,184,91,217,164,77,218,213,166,136,41,15,7,34,152,217,251,82,157,138,60,87,67,216,206,249,188,236,191,246,207,28,15,7,48,5,56,247,95,35,49,58,160,156,33,215,15,140,192,226,245,212,50,216,2,48,156,139,35,83,14,56,44,239,208,88,80,204,222,26,91,185,232,219,106,226,24,230,148,150,36,131,162,240,173,159,170,224,3,64,54,34,224,131,5,5,191,39,186,164,69,70,206,190,67,237,99,26,137,208,35,30,7,75,31,184,177,252,182,68,37,189,188,168,36,35,2,165,200,183,3,148,228,178,246,27,240,69,36,192,44,81,66,171,205,219,101,69,79,52,9,76,198,4,42,153,91,223,165,10,129,200,140,58,213,44,48,167,93,217,109,186,253,210,60,30,133,254,53,218,168,219,162,43,182,41,24,76,178,206,53,73,170,72,236,93,79,249,227,14,26,226,244,88,173,145,213,217,239,37,188,248,18,47,169,24,8,57,62,5,239,77,178,3,78,178,40,187,251,151,34,248,214,91,98,217,212,44,218,15,255,74,146,183,165,221,181,18,151,33,158,85,161,25,176,186,199,148,220,18,160,142,44,16,239,37,25,60,89,35,33,250,50,166,83,245,201,8,4,89,23,201,13,78,89,1,146,33,32,229,178,145,253,84,90,221,254,198,71,232,227,55,7,5,88,198,169,177,205,46,181,201,198,10,39,224,228,21,179,14,24,62,0,43,197,57,210,17,56,203,93,93,65,42,172,65,12,24,1,26,28,31,170,73,189,160,30,179,185,220,177,172,90,195,178,170,75,165,82,141,26,43,221,241,171,183,242,235,237,233,227,174,87,6,226,208,20,186,134,178,176,27,173,255,65,233,194,78,206,87,182,154,190,214,150,65,49,204,178,241,165,26,191,22,29,43,214,245,170,52,29,216,56,195,135,33,254,227,3,185,178,251,172,24,54,141,208,2,30,53,223,65,161,146,214,255,254,157,239,43,211,4,50,192,45,230,13,22,94,180,77,7,4,72,143,27,220,79,85,71,217,167,46,34,202,240,56,8,93,151,255,20,45,91,197,36,225,168,238,83,255,165,232,75,183,183,254,238,159,176,245,172,84,4,62,52,241,137,51,60,166,187,38,18,235,82,161,186,9,79,168,53,153,3,53,228,251,79,94,152,83,3,166,25,164,90,27,48,43,236,244,61,62,79,143,196,251,65,83,160,162,30,45,240,243,191,182,39,182,16,79,79,24,45,42,181,151,60,90,218,8,46,89,167,77,76,5,176,77,80,244,192,22,65,48,159,208,89,235,43,25,195,193,187,66,229,83,142,145,193,161,196,206,234,75,158,173,244,79,205,4,4,236,238,0,160,205,222,199,31,153,219,27,58,241,9,170,81,7,48,172,7,28,51,199,32,230,214,189,146,57,243,160,85,152,160,12,2,89,212,221,230,207,90,31,48,22,145,182,252,158,224,135,169,241,169,69,192,94,54,130,29,218,150,152,34,168,26,195,242,223,80,188,178,231,224,199,133,217,180,240,5,61,49,44,173,221,245,37,165,52,24,87,74,16,49,195,50,70,160,172,231,96,131,157,61,136,59,152,173,73,90,179,167,63,152,59,250,179,168,246,139,227,228,155,167,44,139,89,139,161,69,90,201,64,143,173,35,136,73,0,220,46,2,157,167,184,237,247,173,254,188,92,210,91,167,142,170,6,16,225,33,56,62,79,53,190,30,143,141,157,86,28,35,254,147,130,36,33,240,205,44,38,173,59,6,29,193,3,57,221,94,24,46,140,225,157,94,20,94,53,183,28,236,167,133,246,183,76,150,243,159,67,177,250,250,47,209,6,212,141,182,16,220,249,50,185,158,232,221,47,221,99,142,208,178,211,99,243,55,148,26,197,135,35,144,159,134,35,246,161,85,133,247,17,153,45,22,95,49,66,51,89,62,247,96,180,25,114,64,60,170,4,56,177,249,208,157,184,226,72,162,193,91,34,204,162,22,147,142,245,223,17,9,4,139,30,16,71,65,77,227,174,177,133,189,220,21,139,224,151,31,209,207,250,111,19,232,224,69,140,57,78,78,80,20,94,154,221,232,189,184,214,220,184,65,75,242,193,240,230,17,211,55,223,202,136,4,56,100,44,167,173,207,27,102,249,69,29,58,73,255,64,133,84,91,153,243,156,75,98,135,53,82,26,48,151,223,100,20,188,207,46,166,77,147,243,233,14,193,5,19,144,10,247,152,90,145,202,78,135,230,114,80,224,198,17,172,68,49,243,147,6,81,85,184,100,172,149,137,13,206,201,175,215,88,138,144,229,239,25,199,197,164,35,31,81,15,51,22,240,103,85,19,150,90,236,186,245,189,89,190,171,93,186,169,66,27,176,186,141,79,170,1,216,86,105,86,69,66,64,12,89,76,171,39,249,142,204,16,74,168,32,76,134,77,148,69,253,245,181,88,9,175,219,136,228,23,149,28,100,25,22,87,193,197,209,40,216,24,246,32,97,49,102,243,91,32,23,129,238,90,88,222,245,49,199,155,9,0,242,180,15,169,40,169,9,134,223,100,227,0,234,151,154,116,106,244,41,144,230,78,24,93,137,26,189,147,39,36,99,232,253,18,22,149,22,247,177,223,51,196,0,40,38,218,33,240,180,0,104,151,12,212,247,144,68,214,71,147,88,84,56,85,54,92,241,136,190,219,29,19,75,221,252,178,76,233,143,5,59,77,92,234,84,91,51,101,95,187,105,87,19,37,49,63,213,177,98,249,104,162,145,15,233,142,249,38,189,37,150,232,244,225,216,24,55,184,243,193,67,107,112,164,58,66,165,54,158,21,194,1,192,160,133,188,212,35,182,34,227,201,155,9,194,75,77,138,151,68,77,20,202,78,148,57,157,210,137,1,63,104,67,80,178,174,248,185,195,198,249,188,113,144,157,240,219,201,156,72,159,205,161,51,34,237,41,18,35,164,166,79,87,154,82,75,146,35,166,89,57,194,100,50,30,253,2,48,52,247,179,182,19,169,210,245,38,176,181,159,106,252,136,57,196,253,0,20,209,15,196,156,222,65,217,223,240,222,99,12,41,176,224,86,137,15,186,60,0,94,40,144,42,19,58,151,75,212,101,172,170,143,210,212,112,85,86,154,77,172,138,191,46,229,73,218,161,134,226,228,80,67,203,72,162,166,205,150,5,216,45,176,21,200,166,1,252,46,51,143,157,171,64,220,212,215,56,199,59,252,190,12,61,59,77,67,254,137,186,217,1,95,211,39,252,165,33,163,39,23,182,47,206,33,189,38,148,203,214,52,106,0,21,240,193,32,181,24,246,79,32,204,48,194,255,182,69,187,253,59,63,106,101,101,136,255,171,195,91,194,98,186,254,73,244,80,139,96,177,84,150,239,158,156,89,237,249,206,50,222,137,14,58,209,204,50,233,242,10,169,60,64,39,62,229,165,55,250,15,161,5,179,33,137,39,204,15,209,98,227,17,106,200,185,76,139,2,171,223,11,61,70,74,88,198,253,8,193,198,243,250,154,157,226,196,203,94,220,115,177,179,46,73,50,177,84,93,135,19,61,148,69,15,100,4,89,154,90,253,39,253,249,87,73,137,145,102,188,59,195,72,33,134,206,17,150,15,172,97,45,212,57,224,241,176,142,51,8,40,164,137,141,101,11,167,2,252,179,189,169,91,174,198,200,227,220,3,143,81,34,94,105,35,211,45,41,95,23,10,82,243,173,45,103,212,216,169,145,67,5,50,247,159,241,45,189,179,45,184,32,140,0,16,247,212,194,247,158,167,83,115,177,237,53,46,24,206,1,6,14,29,105,182,35,170,97,235,9,38,203,137,43,65,241,141,224,240,3,94,15,197,191,73,154,13,59,209,68,241,240,34,254,90,227,184,56,73,70,47,220,178,73,8,129,188,90,51,57,208,173,5,92,243,62,213,27,255,214,106,180,170,26,53,210,161,30,204,63,25,217,158,231,168,152,69,52,73,98,47,133,242,72,22,248,201,166,178,216,18,156,87,97,171,17,181,60,149,187,53,227,23,32,112,3,226,206,165,216,135,21,29,236,156,197,96,78,244,25,190,17,95,255,99,184,74,11,245,241,207,201,8,30,241,23,110,217,202,199,174,27,45,193,61,16,132,142,103,57,96,229,195,192,223,137,155,30,42,141,147,16,209,54,225,90,29,228,24,43,23,237,25,202,12,178,102,202,142,99,138,73,215,80,137,41,49,253,212,44,138,229,205,181,255,209,55,60,16,39,230,155,95,56,203,145,141,94,240,57,250,82,177,138,73,162,190,239,175,62,194,3,234,52,99,68,253,50,207,213,13,165,78,70,36,98,186,153,74,232,197,84,227,210,241,216,228,6,77,89,220,182,29,167,35,167,33,32,199,48,197,145,188,143,161,222,144,32,57,66,233,51,177,134,185,60,223,2,247,168,84,191,144,190,171,166,88,97,200,52,202,22,64,64,140,221,146,79,74,149,190,149,70,6,53,3,203,146,196,6,244,211,139,146,147,176,3,90,55,195,143,133,7,222,161,164,243,49,18,55,224,5,85,226,201,36,102,71,250,242,183,6,162,83,70,78,235,134,93,162,227,175,238,1,7,73,59,3,101,249,61,36,19,219,210,59,140,195,146,24,244,58,30,66,227,181,95,250,221,69,239,163,239,74,41,40,81,96,212,32,173,86,162,39,56,219,246,159,148,202,33,155,225,172,249,178,168,192,51,193,92,238,17,64,192,23,176,150,15,61,61,147,90,187,9,39,189,39,40,210,221,18,144,71,61,56,73,55,8,129,245,250,184,141,62,226,157,21,159,66,193,148,194,131,252,84,71,170,134,240,156,30,32,38,222,101,81,229,53,235,242,103,24,94,41,198,179,141,94,189,160,158,160,143,148,229,169,1,111,99,62,89,28,178,85,78,15,6,132,13,225,32,49,46,152,58,53,12,159,202,226,167,164,40,98,232,252,84,44,60,55,88,40,60,214,230,175,227,56,91,7,90,161,239,15,85,166,80,170,97,58,6,97,71,202,90,182,237,175,203,165,78,48,182,213,34,204,7,25,57,164,5,232,187,179,205,147,34,200,155,249,69,212,96,170,222,47,136,250,131,240,6,49,60,145,150,174,248,225,243,149,151,28,35,157,27,203,77,25,194,76,209,61,232,175,236,241,204,234,161,235,159,204,238,53,236,225,96,40,210,9,66,135,230,49,140,50,184,16,252,56,24,191,49,96,99,176,43,20,48,203,80,137,213,245,133,58,206,243,164,165,31,29,86,134,84,150,67,39,47,144,235,242,248,151,169,68,39,85,141,235,213,189,134,207,60,13,225,38,67,20,5,249,87,220,252,248,164,161,15,77,4,3,39,93,170,247,101,218,66,45,91,66,149,245,239,208,199,70,233,71,195,216,209,14,52,81,71,175,204,156,183,190,228,251,207,26,233,186,228,21,167,183,21,16,142,216,231,206,233,228,80,230,168,90,193,69,184,59,252,245,29,41,63,9,203,158,200,53,35,244,151,131,186,74,215,159,95,249,20,23,42,209,155,129,155,162,244,44,164,93,93,189,130,11,184,244,170,77,251,160,49,55,253,168,155,175,90,234,218,62,164,68,219,161,187,10,164,239,244,80,181,49,188,73,189,23,164,156,165,245,152,251,182,82,222,95,45,75,186,185,192,43,130,208,21,22,90,227,33,68,144,141,138,18,29,255,165,70,234,165,236,37,70,227,142,87,175,145,187,72,180,161,230,136,183,52,6,43,65,171,52,186,26,76,98,176,168,34,222,155,233,198,255,47,94,17,230,133,154,253,2,206,85,39,187,6,186,218,160,147,92,156,61,231,187,62,188,201,29,4,73,92,163,192,84,154,74,21,244,142,177,209,218,49,226,246,83,61,230,191,89,69,33,88,99,14,218,180,201,183,66,132,189,59,137,221,133,232,208,46,150,134,0,253,35,9,46,62,251,230,35,36,85,241,193,191,174,234,173,250,72,26,72,131,90,73,64,217,222,90,30,231,23,54,184,32,83,204,78,92,87,20,8,240,177,240,235,175,38,248,130,251,6,195,255,77,157,93,52,209,2,155,224,85,96,78,79,19,61,6,202,63,181,99,43,67,129,54,174,129,230,105,171,94,233,153,174,255,25,212,189,255,197,60,196,86,206,58,222,31,172,195,145,226,180,167,164,158,171,229,81,179,57,35,80,41,142,229,160,40,195,63,201,133,84,230,251,170,13,195,170,176,211,252,235,163,189,145,18,255,67,146,185,151,31,58,65,223,189,21,145,33,143,17,242,65,16,23,226,148,103,54,56,144,101,56,74,64,50,192,162,168,11,211,143,29,233,69,23,88,196,252,254,206,207,84,22,21,12,88,81,232,209,178,254,181,17,166,205,168,235,164,66,57,3,110,224,202,20,216,63,224,227,22,2,6,29,65,231,211,236,36,166,78,170,192,190,59,15,73,14,53,44,25,159,159,94,108,19,206,193,66,230,155,174,51,153,41,13,16,26,89,162,89,140,178,220,254,173,207,189,155,245,51,136,168,3,76,23,167,184,167,87,41,241,174,192,2,93,49,86,47,164,27,193,8,208,165,207,62,36,213,134,68,241,12,4,181,173,82,11,171,70,4,56,194,214,73,210,140,22,176,132,72,88,12,253,175,205,157,226,239,247,193,65,15,78,196,55,48,59,88,92,93,179,134,79,192,170,217,159,164,96,62,204,160,168,244,248,101,97,78,198,101,190,71,89,182,224,28,137,233,49,211,57,4,197,24,45,204,178,28,88,133,38,195,245,178,233,58,248,252,235,99,25,93,50,39,143,217,234,146,214,139,3,72,65,226,138,32,179,152,253,40,59,72,208,181,156,197,138,16,15,39,236,182,31,48,58,212,223,13,175,43,74,246,177,60,87,169,65,33,234,235,211,138,152,209,223,19,29,13,49,162,29,15,164,221,93,92,155,227,158,12,14,211,252,84,83,88,210,40,238,44,206,35,49,210,140,171,85,15,133,143,252,41,141,153,58,251,61,29,250,147,55,72,91,101,177,154,39,209,86,32,234,231,58,82,47,10,88,159,69,255,218,252,155,160,78,204,219,16,75,143,212,154,205,100,87,151,216,153,136,83,213,17,232,96,21,206,212,23,202,156,86,58,75,51,68,10,245,147,244,162,81,199,242,246,190,228,68,67,224,221,237,232,29,18,99,160,73,236,234,6,30,17,18,45,183,43,234,177,154,26,244,143,192,47,242,209,242,69,215,42,1,30,179,40,188,231,157,49,44,55,216,143,53,3,10,134,47,37,45,16,53,56,216,77,5,16,90,206,45,47,255,199,94,76,49,27,145,38,54,165,99,89,40,215,175,174,47,16,157,46,220,151,228,175,20,208,168,185,68,218,97,77,39,239,160,151,190,64,169,1,6,254,100,240,245,214,250,181,178,212,173,205,38,218,217,199,35,0,78,25,231,254,50,41,188,56,38,178,86,43,80,43,102,151,175,42,138,51,134,33,20,66,26,245,204,222,252,20,49,172,16,147,240,209,13,161,69,5,51,7,252,20,39,95,152,239,170,0,59,3,214,9,244,86,68,139,86,175,253,188,164,225,83,37,211,201,204,236,156,91,148,89,170,1,88,222,254,210,200,172,208,152,138,73,26,174,64,154,16,10,29,51,192,66,169,92,61,164,78,92,40,129,175,51,15,4,242,171,58,195,142,152,51,37,91,61,176,222,168,145,181,87,48,205,229,200,135,13,94,181,70,135,76,98,151,41,176,138,169,153,9,132,83,111,205,18,2,160,91,204,184,153,169,217,12,246,42,61,165,219,147,150,91,63,6,57,191,162,215,171,241,218,68,65,132,221,19,20,66,61,189,221,70,193,68,178,233,146,17,198,247,220,138,50,51,160,77,223,141,139,206,169,216,232,73,12,31,163,251,97,185,95,169,179,175,196,234,152,167,206,22,159,152,69,204,142,249,208,38,157,84,17,236,169,20,102,26,157,155,15,135,181,99,32,200,218,1,168,203,73,188,88,251,172,195,252,233,49,194,203,50,40,214,15,87,237,45,3,226,76,157,56,34,211,1,38,223,190,137,54,190,243,253,184,86,85,66,21,255,227,218,30,182,145,139,208,234,241,27,227,53,32,91,172,30,8,146,38,155,84,82,80,248,148,169,224,2,176,10,79,192,75,223,185,8,40,216,50,210,80,142,56,17,33,81,23,89,225,21,85,221,194,200,40,198,167,235,36,134,142,194,200,246,31,42,229,219,66,133,63,97,201,2,237,137,148,52,88,24,45,190,3,53,67,40,242,233,31,4,163,10,60,233,53,32,82,4,119,12,78,95,78,206,6,67,251,72,253,245,208,58,26,53,35,67,37,14,245,28,65,63,199,52,14,194,18,254,20,64,75,17,40,38,253,211,236,80,251,72,35,0,224,247,62,23,50,15,243,254,1,238,15,50,190,11,34,202,44,255,78,41,75,50,79,51,10,191,43,42,5,254,60,5,241,248,64,11,64,56,0,248,30,45,250,52,218,255,57,175,239,235,20,250,35,11,65,69,4,209,17,91,239,23,18,251,232,45,19,27,41,62,245,16,34,43,50,1,231,13,252,193,17,241,57,248,1,54,60,20,251,220,239,73,254,17,14,23,242,30,40,13,39,37,36,23,24,247,